/**
  ******************************************************************************
  * @file    cifar_model_data_params.c
  * @author  AST Embedded Analytics Research Platform
  * @date    2025-03-25T23:56:50+0100
  * @brief   AI Tool Automatic Code Generator for Embedded NN computing
  ******************************************************************************
  * Copyright (c) 2025 STMicroelectronics.
  * All rights reserved.
  *
  * This software is licensed under terms that can be found in the LICENSE file
  * in the root directory of this software component.
  * If no LICENSE file comes with this software, it is provided AS-IS.
  ******************************************************************************
  */

#include "cifar_model_data_params.h"


/**  Activations Section  ****************************************************/
ai_handle g_cifar_model_activations_table[1 + 2] = {
  AI_HANDLE_PTR(AI_MAGIC_MARKER),
  AI_HANDLE_PTR(NULL),
  AI_HANDLE_PTR(AI_MAGIC_MARKER),
};




/**  Weights Section  ********************************************************/
AI_ALIGNED(32)
const ai_u64 s_cifar_model_weights_array_u64[40705] = {
  0xeab9d49ddaf3e1afU, 0xcae0c6d9b6dc86d9U, 0xd8c9f5e7baff8c00U, 0xf1ecb8dbe89a99a5U,
  0xbbc8e8f1f3f605c6U, 0xc78f17c6bcffcbc8U, 0xdde0cbd1f6dde3d6U, 0xe8f4e200edf1d4e8U,
  0xfcb7fdfcef0beba1U, 0xe9e0daebede5efe2U, 0xd3f2e3f5aa0aefc9U, 0xecf6c1809bfdc7ecU,
  0xf1dfd1cefae8cbffU, 0xd702e9f3f2f1dc01U, 0xc30af5fa18e1a0f2U, 0xafcbe6dfa6ebf4f6U,
  0x431e293f28242b1aU, 0x35381942382c363eU, 0x1b3a4858335a4d25U, 0x3e5433281e39474bU,
  0x231f3f4e473e7943U, 0x29407f263a601e33U, 0x435d0e3f283c3042U, 0x1e53615645444146U,
  0x642d261e415b1f24U, 0x18302f404e48630eU, 0x3c3a442e391d3d27U, 0x215346372418304dU,
  0x401746424a383136U, 0x254829481b204876U, 0x3c12452e1e4b3020U, 0x281b212b2c2e6321U,
  0x48e2d59bba2c17ffU, 0xcce4ce64c0fa07ddU, 0xc27fff28dedafcedU, 0x1413dc389dee43f5U,
  0x2f37cd19fb1b0303U, 0xb5d239d012dd52d5U, 0x80d0cb195dd713bbU, 0x1ff966e8e13eb547U,
  0xba1910c4deed2ee1U, 0xd2f412fb4920f0b4U, 0xd32f1d09081c05c1U, 0x421d11301b5d0fdcU,
  0x19181ee6119445c9U, 0xffd5f92d12bada12U, 0xf720b9ad14fefad3U, 0xc8ba13e6849febeaU,
  0x42ce1ae5d41b25f1U, 0xf9e111d3d0e205daU, 0xfe70f638f63d212eU, 0xb352239cf620a3aU,
  0x36280f12e0e604feU, 0x181f0bd21bfb6e02U, 0xd2ef07e828e5fbcaU, 0x7197fd6f45ff234U,
  0x1af5f3095142df21U, 0x61ccee7f1ef0426U, 0xdcee1406f168f6fcU, 0x4f04d141cd4d0ae6U,
  0x2202f6d7f2fdfdd4U, 0x1207f64630063b1aU, 0x1ecfee06010f9fbU, 0xee726ece0beebdbU,
  0xe0d5e37f8fd39914U, 0x9e20a11abc12bbe1U, 0xd49dafcf0298e0bbU, 0xa6cec0c4e7bb27cfU,
  0x3a3387fc80be05ddU, 0xd5e1c2b3aef3e60fU, 0xaf8e70a5d0a23fa5U, 0xbfb2cc824e98e112U,
  0x160b180104fe1808U, 0x31e123e383d0f0fU, 0x110d270716273e07U, 0x1b301e07ef32230aU,
  0x2e05020be7032e25U, 0x122e02fe1a25150dU, 0x27f9060e0203fe09U, 0x22fb220802fc617fU,
  0xece80f8eb8e0e9feU, 0xefcf67f5a8614adbU, 0xd836f225e314fc07U, 0x26c5ca03ef2a803aU,
  0x2ac7c2390fe30501U, 0x27fe40bc2e0d5efbU, 0xa475017f0b57ff8U, 0xaf71d0d050cb929U,
  0x7e6dad7c9eae4e3U, 0xe5ef58f222030ddaU, 0xdbdaaf11f91112d6U, 0x59c7d5ba0001d81aU,
  0xe2eeadf5f8ede2fdU, 0xdddbe4df2eeb0dd2U, 0xfe157f53faf736daU, 0xfac8eae8eeeaeb15U,
  0xb29dbccfecbbc2baU, 0xb1dfc9b7f7e33e27U, 0x25a696bcad0910ccU, 0x9080ebcff19097d6U,
  0xe60fe2d1cec4ffd4U, 0xd115ee0fe0f4e42bU, 0xf3fff1edfef3e0c1U, 0xcff7f7f37fd8c4faU,
  0x797879797a12707fU, 0x79187ac67830c979U, 0x2279397901798037U, 0x7a797a7a79729d1cU,
  0x757e7a71709af9e5U, 0x39fc750b6afd3163U, 0xba76de6e1b797ff9U, 0x7370652b262149dbU,
  0xfcaf5cfda8e90eceU, 0x9a43510339d4f813U, 0x6f128102328735e4U, 0x30fcfc0c4843d79bU,
  0xee150bf52f13350eU, 0xc7e9e3e33029172bU, 0xfcf9d8eee39981a9U, 0x4524ccc938d30256U,
  0xef31400d4154364cU, 0x7f7fc47a67f0583dU, 0xb1U, 0x0U,
  0x0U, 0x0U, 0x0U, 0x0U,
  0x0U, 0x0U, 0x0U, 0x0U,
  0xd798a6c38d9b0000U, 0xb7c1eba2b1be818bU, 0xccf0b5b2efa7b605U, 0x8bbda0dc9U,
  0x0U, 0x0U, 0x0U, 0x0U,
  0x0U, 0x0U, 0xe70cca3603000000U, 0xaff231db6b455bd8U,
  0xde46aea0a19d0bf8U, 0xcf12ecf4d84c7f5fU, 0xa5911a3cbae4d8e6U, 0x30fff5de7e3ef502U,
  0x418d117f0559ece0U, 0xf4U, 0x0U, 0x0U,
  0x2318415f00000000U, 0x38e0b381a244141cU, 0xe2c7bca3033f141bU, 0xcc23d1493bdf2eU,
  0x0U, 0x0U, 0x0U, 0xf1f872d9daf60000U,
  0xcf31f4eec01d207fU, 0xd93d2edce9bd3d1aU, 0x16ae17b4U, 0x0U,
  0x0U, 0x0U, 0x2c4ee32d09da1ef5U, 0x50c8ce99c81e6e7U,
  0x6f153a3de80d4bbeU, 0xc32ae83c653ed509U, 0xf79de53f09d2d712U, 0xd22937661de4cb81U,
  0x5629960459b7U, 0x0U, 0x0U, 0x0U,
  0xed04f0c252068100U, 0x1f166d081acf1dddU, 0xe264af4b2d03c354U, 0xa8ed01deU,
  0x0U, 0x0U, 0x2d00000000000000U, 0x6d4dfd6d48cf2869U,
  0x21c4a88d98644c74U, 0xf8b99eb819b18e3U, 0x1501U, 0x0U,
  0x0U, 0xe23380000000000U, 0xd02466ed1138b7b5U, 0xfc4cfcc4feb78175U,
  0x75decd6bacfd07f5U, 0x2ffac21bea43758U, 0xcf362147c581310eU, 0x673e39ef90f52e38U,
  0xfef44f51945afc7U, 0x64c281c837bdd1f5U, 0xb8cea5b01f2b6f7bU, 0xed0bba29b13b4b69U,
  0x483eedea401be236U, 0x2ad6cafa81f800aeU, 0x9234e4ea5ce48b7cU, 0x4db149d2024e9536U,
  0xb21781bfdd922945U, 0x24c41512ef16261fU, 0x8ae781ebe66b5cb3U, 0xf08f8ebaea1cc092U,
  0xb71c17036a1b1028U, 0xf33a49cf1750fcU, 0x0U, 0x0U,
  0x0U, 0x0U, 0x0U, 0x0U,
  0xd1b7f0000000000U, 0xd105f4e9f3eef930U, 0x50d4b1a3eda9d811U, 0xc9c2a7d2e606034aU,
  0x23800000445U, 0xc0000000000067feU, 0xdf7f9980cf134780U, 0xc8f1d40000007ccdU,
  0x1885d48a2180U, 0xe5d33fa000001540U, 0xcbcee70000002c20U, 0xc00000000000136bU,
  0x21de00001265U, 0x14c5c5a36140U, 0x15b9d22e9a40U, 0x2aa7c9f0da80U,
  0x227d000026afU, 0xfffff20a00000845U, 0xffec6b5000002637U, 0xa0ec0000000U,
  0x1000be004U, 0x18100e5ff10f0ffU, 0xf1ffce01ecff3affU, 0x100f21cf5270aU,
  0x1000edb14U, 0x12400cdff2b20ffU, 0x4ffc70130fff42aU, 0xf001000908e01e1fU,
  0xfd000100110e16U, 0x12100f2ff1200ffU, 0x11ff270111ffafd6U, 0x120100f9dee8c420U,
  0x2000100feeb04U, 0x10300e1ff2350ffU, 0xd1ffd2012effaf0fU, 0xfa010001fef40701U,
  0x2000100000104U, 0x14900ceffef3bffU, 0xe5ff130110ff89e2U, 0x100fbf0f68803U,
  0x3000100020afeU, 0x1010027ffb8e0ffU, 0x1cff6001e5ff34f5U, 0x80100faf50d0018U,
  0x2000100f8fcf1U, 0x1f400ceffe00cffU, 0xc9ff2601e9ffdbffU, 0xd0100f9021abbfcU,
  0x4000100faedefU, 0x1d6004cffc6f5ffU, 0x10ff4f01e8ff4819U, 0x30100fe010d0826U,
  0x8000100f3efedU, 0x104004affd4daffU, 0x30fff60130ff1342U, 0xf70100f700062e13U,
  0x24301fffef2fee6U, 0xfee6fe09023b0100U, 0x680200fe8702f7f5U, 0x1cfefe0fd11510f6U,
  0x24401fffeed28eaU, 0xfee7fe35023c1c00U, 0x5e0220fe8e0207e9U, 0xeafefefbce16e40eU,
  0x24901fffee9dee2U, 0xfe14fe6702fa1e00U, 0x70020efe810209c5U, 0xf8fefeeef2fbfe00U,
  0x22e01fffe1213e8U, 0xfeddfe9b02ca3c00U, 0x202f7fe3602f80bU, 0x1dfefe0bd813f8efU,
  0x22b01fffe0832f1U, 0xfebdfe9802c9ff00U, 0x4e0237fe4102d102U, 0xfefefedefe1500e5U,
  0x22f01fffefd10f7U, 0xfee0fec102b1f500U, 0xfa024ffe6402ba2aU, 0xf4fefec70a01f3f6U,
  0x22101fffe3517eaU, 0xfeaefeee0208b200U, 0xe002befe6e020c0cU, 0xf4fefef1e5a7f42aU,
  0x21901fffe2814fcU, 0xfea7fed502eebb00U, 0xa00293fe64021930U, 0xe2fefef5f19af10aU,
  0x21901fffe1802fdU, 0xfebcfeda0210e300U, 0xb602bbfe6d021130U, 0xf7fefee0e8a7de11U,
  0x20a01fffd0d1011U, 0xfe1ffdfd03f2c702U, 0x4902fafed302f4f5U, 0xf7fefd07d422bae7U,
  0x20601fffd0e140bU, 0xfe14fd05030d2002U, 0x102e6fe2c02cbf5U, 0xfbfefd00e5256e13U,
  0x20301fffd141002U, 0xfe16fd0103f80702U, 0x1302e9fef5021de8U, 0xe3fefdf1f81ef20bU,
  0x20601fffd08c7f6U, 0xfef3fdf103d6bc02U, 0x23020bfed10227caU, 0xfbfefdfdb2f9a0daU,
  0x20701fffd05f3fdU, 0xfefffdfc033d2a02U, 0xcc02befe28029b05U, 0xfffefd13f8fa470eU,
  0x20401fffd09fef5U, 0xfeeffdd903fffb02U, 0xef0211fee0023fddU, 0xdcfefdf9f1f6d3ecU,
  0x20801fffd00f4fbU, 0xfef2fdf203eed202U, 0x25021bfece0217d4U, 0x1fefdfbbeffc2f1U,
  0x20801fffdfd18f4U, 0xfefffd2203291b02U, 0xd402dcfe1d028107U, 0x7fefd1d0aff4cf7U,
  0x20701fffdfe02eeU, 0xfefffddd03edf502U, 0xf4021ffeea024cf8U, 0xd9fefdfef5f9d905U,
  0xff0000ff0702eeU, 0xff001c0009e500U, 0x400fd00f800ebffU, 0xf80000f701f9e6f1U,
  0xff0504e5U, 0xfb00ff00041700U, 0xd00e5003300f3feU, 0xfa0000f715fb2118U,
  0x20000ff050ff4U, 0xfb00c800e6ef00U, 0x1f000b00e5007506U, 0xf10000f31903c814U,
  0x30000ff000df1U, 0x100fc0007e800U, 0x100ff00f600dafaU, 0xfc000002f8f4e6faU,
  0x40000ffff09e6U, 0xf7001000150c00U, 0xfc00df002e00d102U, 0x80000021af53c08U,
  0x50000ffffe5edU, 0xe900d500d3ef00U, 0x27000600cb007ffbU, 0xf30000fe0af9dd0cU,
  0x50000fff931f8U, 0x5001000181900U, 0x800e3000d00bb00U, 0x5000009f7f0f5ebU,
  0x80000fff82ceeU, 0x7001f00131000U, 0xee00db001b00db0cU, 0x1000000d16f822f7U,
  0x90000fff5f9f0U, 0xfd00d700d3f400U, 0x14001f00f8004cfbU, 0x60000fcfd06ef0eU,
  0xff08000000fdf202U, 0x3100f5ff484400U, 0x4ffc9002900241dU, 0xfb00000818ff2b11U,
  0xff040000000204f9U, 0x2000f9ff07d000U, 0xe9ffeb000100bbf0U, 0x90000010104cddeU,
  0xffff000000030c08U, 0xaa00eafff73400U, 0xecff1900eb004df2U, 0x1700000bfef6020fU,
  0xff0b00000000f101U, 0x2200fafffefe00U, 0x1ff1600ec00cceeU, 0xd00000a17f3dafeU,
  0xff090000000023f4U, 0xed00ffffe3f900U, 0x25ff0f00e8003d01U, 0xd0000170e1cfa07U,
  0xff06000000ff1809U, 0x1b0017ff281100U, 0xe4ffe2004800eb14U, 0x11000023f5f95f0cU,
  0xff13000000fd0300U, 0xb600fefff7d800U, 0x3afffc00e000640bU, 0x16000011f3050cf6U,
  0xff12000000fa0d0cU, 0xfa0009fffd1500U, 0x1fffcc003f00d618U, 0x24f6084908U,
  0xff0f000000fe0511U, 0x3500faffe1f500U, 0xfaff1600f200ddf3U, 0xe00000f12f581d7U,
  0x1fe01fffffa08fdU, 0xff15ffc40103f901U, 0x210111ffe3010e0eU, 0xf000ff0be9ff070dU,
  0x1fd01ffff02ebf4U, 0xff22ff3f01fc1201U, 0xfe01f4ff0e01fdf8U, 0xf600ff0707e90af8U,
  0x1fb01ffff08e6eeU, 0xfffeff5c010a0b01U, 0xd401d4ff1601c1d2U, 0x1700ffe623e3e8ecU,
  0x10501fffff8f1fcU, 0xff1dff9901eae701U, 0x6010fffe3012e17U, 0xf100ff0dd60f031fU,
  0x10201fffffe1000U, 0xfff0ff0c01190801U, 0x40109ff12010c09U, 0xf500ff080ef2f70bU,
  0x10101ffff03f2f3U, 0xffebff5901140d01U, 0xe501dcff1d0194d7U, 0x1500ffec29e5efe3U,
  0x10801ffffefe9fcU, 0xff09ff8101ddc401U, 0x2501fbfff7013603U, 0xf500ff06d9122c20U,
  0x10601fffff81204U, 0xfff1ffd10103ed01U, 0x130115ffd401311dU, 0xf700ff090908fa0cU,
  0x10701ffff000f02U, 0xfff2ff53010f2401U, 0xed01e3fff701d5e5U, 0xfffc21f305dbU,
  0xff00000000da2af5U, 0xfc0036ffdbc800U, 0x100014000100f70bU, 0x1fffe05dadeU,
  0xfff5000000e1feeaU, 0xd10028fff2d500U, 0xb00040014002014U, 0xee000124d9012b05U,
  0xffe7000000eadae3U, 0x1900e1ff17ff00U, 0xe700e7001600e521U, 0xf600012319032604U,
  0xff09000000e102f7U, 0xb40003fff8c800U, 0x700d800110008f9U, 0x9000118e4ef2bf9U,
  0xfff6000000e6f6f9U, 0xf700d8ff0c0600U, 0xe7009d000800df06U, 0xf700011ce2ea210aU,
  0xffea000000f3daf3U, 0x700bfff0f0300U, 0xf9009e00e000ee19U, 0xf400010b15fdf31bU,
  0xff08000000eaf9f7U, 0xe100b8ff211f00U, 0xf0084001d00e410U, 0x9000106d3e615f4U,
  0xfffb000000eeedfaU, 0x400b0ff180b00U, 0x6008100e500f9f5U, 0x50001fee4ea0c14U,
  0xfff0000000f5c2f2U, 0x1b00dfff2b0000U, 0x1800a100a6000debU, 0xf50001e40bf9182aU,
  0xfd000000e7ddfeU, 0xd00dc00305900U, 0xda00b6000700ef26U, 0x180000fae129d1f7U,
  0xe8d6fcU, 0x1600f900002e00U, 0x8e00d80041002e2dU, 0x16000022e435f3efU,
  0x3000000eacef2U, 0xef00f7000de100U, 0x9500b0001e002755U, 0xfd000037e82c00f9U,
  0xe7000000f209fbU, 0xf004e0067af00U, 0xee009f00a9005f03U, 0xe400000dfecffdfbU,
  0xe9000000f2f4fdU, 0xf100360060f600U, 0x1b008200aa003712U, 0xe1000021e4e4fa1eU,
  0xea000000f802f1U, 0xf9000e007b2b00U, 0xcd008100a100182dU, 0xe4000036cfd6bb30U,
  0xde000000f634eaU, 0xea001500f4f400U, 0x37002400eb00a7e8U, 0xd40000dd01dfec0eU,
  0xdd000000fd4df3U, 0x2700050016c600U, 0x56002a00d200c5bfU, 0xe70000bee1e4ee15U,
  0xde000000034aecU, 0x800260012b500U, 0x380021000d00cde2U, 0xfd0000d0c6d7f92cU,
  0x40401fffcfb1eb1U, 0xfcf7fcdb040bfc03U, 0x380320fd01040a17U, 0x9fdfceefda106dfU,
  0x40801fffcfd03c9U, 0xfce8fc4304191703U, 0x4503f0fdb304e913U, 0xcfdfc01e6bc2a02U,
  0x40801fffcffffcbU, 0xfc1cfcf904211303U, 0x3803e3fd8104bf18U, 0x20fdfc0bdcc3c20fU,
  0x40b01fffcfafbbfU, 0xfceefccb040e3503U, 0x4703f6fd0904230bU, 0x3fdfce211e41006U,
  0x40f01fffcfdfad8U, 0xfc0dfcf504fcc403U, 0x4e03d8fdbc040407U, 0x2fdfce6f1e4ccf8U,
  0x40b01fffc00fdddU, 0xfc1bfc1a0422fb03U, 0x4c03eefd8404c4f9U, 0x16fdfcf5d9e4e910U,
  0x41801fffcfb0fc7U, 0xfcd0fcb904c61003U, 0x300300fdf80410e9U, 0x6fdfced101a43fbU,
  0x41701fffc010dd4U, 0xfcb7fcea04ca1303U, 0x5a0316fdde042104U, 0xf3fdfceb042c1504U,
  0x41401fffc0414e3U, 0xfcdffc0e04ef1d03U, 0x4603d6fd0104cde6U, 0xfdfdfc06f12802e5U,
  0x20401fffe330ecaU, 0xfe2cfe3902010102U, 0x770235fe22023bdcU, 0xf4fefe11fdce42f8U,
  0x20201fffe3104d5U, 0xfe19fe1002231102U, 0x72020dfe67022938U, 0xddfefe1233cc54fdU,
  0x20101fffe2fcce1U, 0xfe09fe2b02030202U, 0x5b021efe38021d41U, 0xf2fefeffd1dd43f5U,
  0x20101fffe35f39bU, 0xfefffe0b020fe302U, 0x4902fffee90203baU, 0x6fefe1020e325eeU,
  0x2fe01fffe36e8aeU, 0xfe04fe32021b3a02U, 0x6402fafe0e02f919U, 0xeefefe0d3ecb0007U,
  0x2fc01fffe34e0c4U, 0xfe03fe04020f3a02U, 0x48020bfe1002080dU, 0xf8fefefdc1d506fbU,
  0x2fe01fffe280391U, 0xfed4fe1502fc3002U, 0x24020ffe8102e8b0U, 0xfdfefe0503f409faU,
  0x2fb01fffe29f4a5U, 0xfefefe1c02fb3602U, 0x4f020efe9e02fbdbU, 0xeefefe0200c1de0fU,
  0x2f901fffe27f3c1U, 0xfef7fe0702d73702U, 0x490221fef302b8b3U, 0xe2fefe05aec9e301U,
  0x1fb00fffef8f1e1U, 0xfeb8fefa02f8e901U, 0x210138ffee02f9d6U, 0xddfffe0efdf13123U,
  0x1f900fffefc02e5U, 0xfe0ffe2b022be101U, 0x150109ffde02d7d9U, 0xe6fffef2f3e5f8f8U,
  0x1f700fffeffffe2U, 0xfe48fe3b02710d01U, 0x2a0103ffb402f8fcU, 0xfefffee9e0d6fe1bU,
  0x1ff00fffef0dcf3U, 0xfec5fe8602810a01U, 0xa015eff4102f3f8U, 0x6fffef6ea3f0620U,
  0x1fd00fffef2f5f8U, 0xfec1feca0297fd01U, 0x1a016dff1a02fff8U, 0xeafffef4fa2dfd0eU,
  0x1fd00fffef3e8e6U, 0xfe03fe0202ede301U, 0x2f0158ffea02f5dfU, 0xfbfffeea0610150aU,
  0x10000fffee9e50dU, 0xfefbfe8c02c01201U, 0xb5010cff38022509U, 0x1ffffef9fa0c29d8U,
  0x1fd00fffee9e0f9U, 0xfec0fe8802a52501U, 0xc0012aff280212fbU, 0xf9fffe0dcd361efeU,
  0x1fb00fffee5dbf2U, 0xfefdfeb902a51301U, 0xfc015fff070220eaU, 0xf4fffefb001d00f6U,
  0xf50000000708f9U, 0xbc003c00054700U, 0xf10041000000d6d1U, 0x10000fbe923e9e8U,
  0xfd0000000709faU, 0xe700ed00fff200U, 0xde00f2000d00cee3U, 0xfb000009efe6b4e8U,
  0xfb000000081609U, 0x1e0081000ac300U, 0x2800e400be004c26U, 0xf300001fd9dc282cU,
  0x30000000811f1U, 0xb9004e00255f00U, 0xf30032002800cee8U, 0x2d0000fc1f1fe6e6U,
  0xf0000000b07efU, 0xf3000b00fce400U, 0xfc001c00e400d7edU, 0x60000090beabeedU,
  0xd0000000b1a01U, 0x4000840007be00U, 0xa000200bc005037U, 0xeb000032c8d34b2bU,
  0x100000000906f2U, 0xde004f00004f00U, 0xe600f5003600c0b3U, 0x420000f231f5b5baU,
  0x190000000ae9ebU, 0xfe002300ecc000U, 0xf60010000000d5e2U, 0x2000000a1cf1eae6U,
  0x140000000debfbU, 0x1e00880001b600U, 0x1a00fb00bf003f36U, 0xf6000020dbe53016U,
  0x1010000fed00ee7U, 0xff30fec7022a2c01U, 0x37010eff0d01071fU, 0xddfffec5d41ed8ccU,
  0x1010000fed4050aU, 0xff29fe5c02e3cf01U, 0x100104ffc901c80dU, 0xe8fffef7b2de4708U,
  0x1000000fed7cf31U, 0xff27fedf02d4d901U, 0x2501fbffa001c71aU, 0xedfffe0dee020a17U,
  0x1f80000fed3eec2U, 0xffbafeba024f7f01U, 0xec0118ff6a0148baU, 0xf0fffedc163deee2U,
  0x1f60000fecf03d8U, 0xff37fed302f1a401U, 0xa01d7ff240109f8U, 0xe4fffedfb4c805e5U,
  0x1fb0000fed0d907U, 0xff57fe1c02e0e401U, 0xe501c6ffa601bd27U, 0xe9fffef8e7bc362bU,
  0x1f60000fed5c3cbU, 0xff87fe0b020a6401U, 0xd801eaff1201698cU, 0x1fffef6522f01d7U,
  0x1f50000fecafbc5U, 0xffe8fec602df5b01U, 0x2010fff4b011ffcU, 0x3fffee307f9b7eeU,
  0x1f90000fecae9edU, 0xff57fef502bf9101U, 0xfa01deffe8010a14U, 0xeefffee6c6abf6f7U,
  0xf500000000e3efU, 0x10005c00111f00U, 0xd00f0001300f7eeU, 0xe20000e4f7fdabdeU,
  0xfd000000f7e7f3U, 0x8001100f8fb00U, 0xe500c6001f00efcbU, 0xdf0000e80212e2ecU,
  0x3000000effafeU, 0xd9000900f3fa00U, 0xc800dc000f00ffabU, 0x30000f4152cdef1U,
  0xf600000003faf4U, 0xfb005e00ef0700U, 0x1f00f0000d00fbe9U, 0xf20000eaf8ead6d2U,
  0xf9ecf6U, 0x3600f7f300U, 0xf00ca001200ede2U, 0xed0000f001f9f1daU,
  0xc000000f0dbfbU, 0xdb004b00e7fb00U, 0xe000c6000700dac7U, 0xfd0000041513ece8U,
  0xfc0000000410f8U, 0xe4002a00f7fb00U, 0x2a0007002700fcf9U, 0xfa0000f1f7eaf1d2U,
  0x7000000f80bfaU, 0xe7002d00f6ed00U, 0x2f00f100150006eeU, 0xf50000eefcfaf9e9U,
  0x15000000ebf9f9U, 0xf8007f00190c00U, 0xf700d200f800d9ddU, 0xf80000fa1607dfedU,
  0xef0000ffa8f7efU, 0x8a00f3003f2300U, 0xe400dc00e300fa19U, 0xfc000008f8c71ff7U,
  0xff9f0be4U, 0xd800f50018f900U, 0x26003700c300f230U, 0xff00000e10b8f6dcU,
  0x90000ff9936eaU, 0xec00210031f200U, 0x22000e00df00f2efU, 0xfd00000c00c632d4U,
  0xee0000ffb9dad9U, 0x8100e20004d900U, 0xa00f500d300fc09U, 0x1d000007f8f5f3fbU,
  0xfe0000ffabe0caU, 0xba00fa0000db00U, 0x4f003300be000407U, 0xf500000d07e8bcdaU,
  0x90000ffa111d6U, 0xf700f6000eeb00U, 0x2a000600c200fef9U, 0x140000f803f726e9U,
  0xf30000ffcde1e5U, 0xac000000e0fa00U, 0x2a00ca001f000ef8U, 0xf0000ebfd14df11U,
  0xffbbe3dbU, 0xbf000300ff2000U, 0x4e000b00f800070aU, 0xf20000071b289cf0U,
  0x90000ffb020daU, 0xc200a900f51600U, 0x32001200b600f937U, 0x1e0000f5f738b105U,
  0x2090000fe15d4e6U, 0xfe18fec102081801U, 0xed0102ff30023441U, 0xf6fffe2202047b3dU,
  0x2050000fe14d2f0U, 0xfee4fe1402c60a01U, 0xea01f2ff0b0232f3U, 0xf5fffeef05090524U,
  0x2fd0000fe0e32eeU, 0xfee3fe0202c7e201U, 0x37012fffc802f6b7U, 0xe3fffeea11fc93ccU,
  0x20c0000fe0e09f6U, 0xfe3cfe910210e201U, 0xcb01e2ff10022a3bU, 0xe7fffe2b05057a35U,
  0x20b0000fe0be300U, 0xfebdfe3502fe0801U, 0xdf010affeb0232e2U, 0xfdfffef40d0fef14U,
  0x2070000fe02e8f1U, 0xfeaafe2902b5ff01U, 0x1c011effdd02e5a8U, 0xd6fffee80c068bc0U,
  0x2140000fe0ac20eU, 0xfe02fea602150501U, 0xc901bfff1d022e5aU, 0xecfffe21e80f6c46U,
  0x2140000fe04c310U, 0xfea6fe3602c01701U, 0xfc01e2fff30229b6U, 0x17fffeef0621e708U,
  0x2100000fef3ae0aU, 0xfef3fe5902a0fe01U, 0x35011dffcf02f481U, 0xf2fffeebfc0f88cbU,
  0x2f90000fef1fef8U, 0xfe01fe2b022d2701U, 0x1c01e0fff2021e27U, 0xe7fffe0ff8f27f0fU,
  0x2fb0000fef9effbU, 0xfef9fe0002c5e201U, 0x20116ffee026206U, 0xe9fffee5f9f5b7e5U,
  0x2fc0000fef8f4fdU, 0xfe23fe1502d60201U, 0x1b01e7ff140203f6U, 0xf4fffed9e5022901U,
  0x2f90000fee505fbU, 0xfec3fee60228eb01U, 0xd301d5ff0b02cbd0U, 0xeafffe0104eb4df4U,
  0x2fb0000fee9e0fbU, 0xfec1fec302c8b001U, 0x290126ffd30214c7U, 0xebfffeeafcf7a7d7U,
  0x2fb0000fee609f4U, 0xfe02fe1202fc1a01U, 0x10103ff20028ae4U, 0x5fffee7f01a21e5U,
  0x2f80000fedf22f5U, 0xfeeefee302fd2f01U, 0xe40110ffe902faefU, 0xe9fffe00f519eee9U,
  0x2f90000fee2eefdU, 0xfee3fee402d64101U, 0x130136ffd302310bU, 0xecfffef0ff25bce7U,
  0x2fb0000fee3fff4U, 0xfe13fe4a02225f01U, 0xf301d2ff3c029904U, 0x6fffeefd92b24e5U,
  0x20200fffef80319U, 0xfed3fedf022e5c02U, 0x1f02defe47021fabU, 0xe9fefed30e14cae1U,
  0x20400fffef0fd0eU, 0xfeecfefe022d7902U, 0x1002eafe330254d9U, 0xeefefe030ce9d7d5U,
  0x20500fffeebdf16U, 0xfebafe08022f1f02U, 0xe02f9fe15026ccaU, 0xf6fefe0e18d5fedbU,
  0x2f900fffeea7f08U, 0xfec2fef602ca9002U, 0xff0241fe2502b0a4U, 0xf6fefecd170def1bU,
  0x2fe00fffee65119U, 0xfec3feb102ee1102U, 0xf20246fe04029dc3U, 0xfafefeea09ede200U,
  0x2ff00fffee12a09U, 0xfeb6fe0802166d02U, 0x260223fec602dbf1U, 0x9fefefb12d9db09U,
  0x2f600fffed868dbU, 0xfe5ffee202d0cf02U, 0x11023dfe1702bf50U, 0xfafefed103460049U,
  0x2f900fffed27be7U, 0xfe2efef802b2a202U, 0xeb025dfe1d02d03cU, 0xf4fefed51c47e641U,
  0x2fc00fffece36f0U, 0xfedffefb02d19602U, 0x140264fef202d829U, 0x4fefec621162627U,
  0x1e70000fff50cefU, 0xffffffe301fdbc01U, 0xb6010eff6b011337U, 0xffff30fa690123U,
  0x1ea0000fff702e8U, 0xff2bffc10122e701U, 0xda01ecff0801451bU, 0xedffff26f2440b31U,
  0x1f00000fff8f6dbU, 0xfffdff10012e2d01U, 0xed01feffa10159fdU, 0xf4ffff01faf9f134U,
  0x1f60000ffe811feU, 0xff29ffc0011dc401U, 0xd101dbff32016415U, 0xebffffeddc2f1b42U,
  0x1f70000ffed0ff7U, 0xff19ffb7010d1701U, 0xc01caffb20168f1U, 0xddfffff9e6f3e035U,
  0x1fa0000fff4fce9U, 0xffd3ffee01e71e01U, 0x2401d5ff810114d5U, 0xfffffff2b2eb0bU,
  0x1030000ffdde10dU, 0xff24ff8c01f50801U, 0x1ceffc701690fU, 0xd5ffff06eaff2a3bU,
  0x1050000ffe7040aU, 0xfffcffd001e13601U, 0x3e01bbff8f0113c4U, 0xdaffff0a03ec1026U,
  0x1070000ffeff8f7U, 0xffcfffe701e92301U, 0x4701f0ffb901b7c5U, 0x6ffff13f9b00efbU,
  0x1060000ffffe41dU, 0xaff2201274801U, 0xf100f7ff25000aefU, 0xe0ff00ed0c1c3936U,
  0x10b0000ff0503fbU, 0xe7ff1101d2c301U, 0x70010ffef00f4ccU, 0xd7ff00e9d5f8c1f8U,
  0x1070000ff0734f1U, 0xdffff501e5f301U, 0x430031ffe2002905U, 0xe1ff00facbf9e6fcU,
  0x1070000fff7caf4U, 0x1ffff701fef801U, 0xe000e4fffb00e4dbU, 0xefff00df0aefc51dU,
  0x10e0000fffcf3e0U, 0xb1ff2201d08101U, 0xfc0027ffaa0016e5U, 0xd7ff00f3c1cbc6fcU,
  0x1070000fff90cedU, 0x2bffec01183701U, 0x1e00e5ff2d00c227U, 0xedff0005d3da5b1dU,
  0x1110000fff3c2e6U, 0xc8ff1201c8c601U, 0xe7003effc4001fedU, 0xfdff00d7f0dcaa05U,
  0x1120000fff2eae7U, 0xf4fff4011ffa01U, 0xc00faff12000623U, 0xf7ff0003c0d9330fU,
  0x1090000fff2defcU, 0x26ffbb01f10b01U, 0x2000adfff600d90dU, 0xfaff0011f6ebe5f6U,
  0x1090000ffdb1d1dU, 0xff14ff2501e6de01U, 0xf80132ffe001d9fbU, 0xe0ffff29e90b000aU,
  0x1060000ffdd5221U, 0xff12fff101f7ef01U, 0xf3010affda01e9fbU, 0xeeffff0ed51ce920U,
  0x1030000ffde371bU, 0xff00ffdb01e8d401U, 0xfa0106fffd01e5e1U, 0xfcfffff7da2ae421U,
  0x10e0000ffc7b90fU, 0xff68ff3d0101af01U, 0xea01e9ffc001f3d5U, 0xe5ffff06e7c5131eU,
  0x10e0000ffcbeb0eU, 0xff77ff0a0100b001U, 0xf901d8ffd801bed9U, 0xfcffffede9e9ee21U,
  0x10a0000ffd3b90dU, 0xff3aff2a01d8da01U, 0x1daffb201cdf5U, 0xeffffe0dfd8091eU,
  0x1060000ffc21dffU, 0xff7fff2e01f45c01U, 0x160103ffbc013efaU, 0xe9ffff16e9eb1af0U,
  0x1090000ffc72700U, 0xff2fff3d01097201U, 0xfc010dffca014628U, 0xfaffff13f4e01beaU,
  0x1070000ffcfd2f9U, 0xff13ff3a01151301U, 0xe60108ffd5011d33U, 0xfffff60bc719f8U,
  0x900000006100aU, 0xdd002200e7d300U, 0xe000e600fc0004ceU, 0xf800000100073d1fU,
  0x800000003f109U, 0xdf00c700ee7f00U, 0x2d001200e400d4d4U, 0xed121bc119U,
  0x7000000000a03U, 0xe400f50022b800U, 0xe100e900e4000bf1U, 0xfe000001251ae2e9U,
  0x30000000aecfcU, 0x35000f00dd9900U, 0xfb00cf000f003527U, 0xf5000006e6f2bc03U,
  0x600000009f9ffU, 0xe9003b00d6c900U, 0xf500f300e50023deU, 0xe60000f80cf65e0dU,
  0x500000001f604U, 0xe600d000fe7200U, 0x1d000800f600dddeU, 0xf40000fc1018e9ffU,
  0x20000000cf8f4U, 0xfe00f400e86d00U, 0x29001800f700be1cU, 0xf90000f9edfcfd22U,
  0x400000008eaf6U, 0x4100f600f7bc00U, 0xee00df0021000924U, 0xf20000e9eef1eb11U,
  0x4000000060900U, 0xec002900f9de00U, 0xdd00ec00e6000de7U, 0xf4000000ed042715U,
  0x2d700000097f909U, 0xfef0fe0f00b2ca01U, 0x21020dff490200f8U, 0xf7fffef1f1e2fbcfU,
  0x2d100000092ecefU, 0xfe49fe0f00c0e301U, 0x280200ff0602f5e1U, 0xdffffed922e1200dU,
  0x2d40000009923e6U, 0xfe09fe1c00c1bf01U, 0x160242fffe021f01U, 0xedfffeea2be3f111U,
  0x2f00000008bf1ebU, 0xfe28fef500cadc01U, 0xf402baff200236fbU, 0x1cfffee406df2b0bU,
  0x2eb00000089eecfU, 0xfe0cfeff00c1ce01U, 0xd902c0fffc0202e2U, 0x9fffed8fbc4c001U,
  0x2ec0000008f0cd0U, 0xfec3fef600d5ae01U, 0xf30250ffae0216e9U, 0xcfffe0bfeb1d1e9U,
  0x20e000000813fd3U, 0xfe20fefe0085ac01U, 0xb602ebfff502fee8U, 0x34fffef721eb07ddU,
  0x20b0000008715c5U, 0xfee8fe3e0087c901U, 0xe4023fffbf02f5e8U, 0x3dfffe14f9e1f3eaU,
  0x2080000008f2bd0U, 0xfed8fe0700f90001U, 0xed0211ff07020836U, 0x39fffe5829bc6dc6U,
  0x20101fffd5505f8U, 0xfef7fd22032afe02U, 0x2d02d3fe48021559U, 0xdfefec52cfccd39U,
  0x2ff01fffd5afd17U, 0xfeeafd1a0331d802U, 0x36021afe3802e27fU, 0x29fefed4ce1e012eU,
  0x20601fffd5df91cU, 0xfec1fdf10343ca02U, 0x2b0228fe7102ee50U, 0x4fefec1de4a0033U,
  0x20101fffd60f718U, 0xfe0afd4803e90a02U, 0x530205fe32020735U, 0x1cfefef409040b0cU,
  0x20101fffd69082fU, 0xfe2dfdfe03fa2d02U, 0x4d021dfe5b02f21dU, 0x35fefef1d9411509U,
  0x20401fffd6ee739U, 0xfe19fde203120a02U, 0x380207fe59021c24U, 0xf6fefedfef66121bU,
  0x20101fffd5b0c17U, 0xfe3ffd2403f63402U, 0x1a0207fe4002ebb7U, 0x1dfefee6edd4f7c7U,
  0x20001fffd620f2dU, 0xfe15fd05031a0602U, 0x310203fe75022fbbU, 0x29fefeebfb0a57f6U,
  0x20001fffd6de52dU, 0xfe1efdcb0319e302U, 0x1f02f4fe4a027cebU, 0xe1fefedb16165d05U,
  0xb000000dcee1aU, 0xc50005001e6700U, 0x2a002e00c7000908U, 0x60000e00cca260bU,
  0x7000000e6fd0cU, 0xe4003500ee0200U, 0x1f0002001200b6e1U, 0xfe0000bef303ecd5U,
  0xedd7ecU, 0xf2000700fce200U, 0xd900ed001a009f02U, 0xf10000e02b2d07faU,
  0xcfcc1eU, 0xc6001200e94d00U, 0x31001800d200310dU, 0xf60000e12be2def3U,
  0x2000000dcb80dU, 0xa002700d7db00U, 0x900e8000b008111U, 0xfb0000d9f72efacdU,
  0xf8000000e6d9f2U, 0x4100eb0010d100U, 0xba00cc004800be2dU, 0xf90000f8117030f1U,
  0x1000000cbbf12U, 0xf6001600e71300U, 0x44000f00ca001013U, 0xfb0000e425e0e2e9U,
  0x2000000dbc906U, 0x32003900e5c100U, 0x600db004a00b80aU, 0xff0000e7f81314e6U,
  0xf7000000e608efU, 0x5400e1003fde00U, 0xb700d30024002153U, 0xf3000001e04a21fcU,
  0x1fa0000ffff1100U, 0xff09fff901ed0c01U, 0x80110ff060107fcU, 0xf6ffffeefffdea0eU,
  0x1fc0000ff07fcf6U, 0xff14ff0601e9d501U, 0xe01eaff0001fa07U, 0xf8ffff08fe0bd8fdU,
  0x1fc0000ff08fc01U, 0xff0cfff801192e01U, 0xf901f8ff0101f7feU, 0xf7ffff08ed052e13U,
  0x1fd0000fffa05feU, 0xfff9ff20011f2b01U, 0x1301ffff1601eb05U, 0xf3ffffe816f82c0eU,
  0x1ff0000ff01f4f1U, 0xff10ffce01e5c501U, 0xfa01ffffec011bfdU, 0xf6fffff8e8f581e8U,
  0x1fd0000ff0400feU, 0xfff6ff2601271a01U, 0xd101fdfff101e1f6U, 0xfaffff07f0076918U,
  0x1fc0000fff21406U, 0xffe1ff4201032e01U, 0x1dafff801ecf7U, 0xfefffff11df86b25U,
  0x1fe0000fffaddfdU, 0xff1dffd001e50901U, 0x290110ff03010ef7U, 0x2fffff0e6f798e8U,
  0x1fb0000ff01d903U, 0xfff8ff040113b701U, 0xe701f9ffd901f8fbU, 0xfbffff0802fb27f3U,
  0x20000ffddb0eaU, 0x1cff0c01fd3a00U, 0x16000600ef00e90cU, 0x2400ffffeaf9f5ebU,
  0x40000ffda04ecU, 0x55ff1b01ecf000U, 0xe5001e00f000e81cU, 0x700fff1cff309fbU,
  0x20000ffdeefffU, 0x30fffe01ce8300U, 0xde001e0000000718U, 0xf400ff0bfef33504U,
  0xfd0000ffebc6f3U, 0xdcff0e011e0b00U, 0xf000b7001200fff8U, 0xd00ff00fe14f7f3U,
  0xff0000ffe6f3ecU, 0x12fffb01207f00U, 0xf100e9000900e110U, 0x800fffde015c7fcU,
  0xfd0000ffe719f2U, 0x4bffe4010d3900U, 0xe500ff000600ea47U, 0xfd00fff20602aae2U,
  0xf60000fff1ed06U, 0xaafff2011fc600U, 0x1a00d100fc0027b6U, 0xf600fffb03130ef9U,
  0xfd0000fff3ea01U, 0xc4ff290114c000U, 0xb00ce00fc001ebfU, 0xf400ff0bf10f27f2U,
  0xfc0000fffafaf7U, 0xe8ff20012b5300U, 0xf300b900050005fdU, 0xf000ff170ffed3f1U,
  0xfcdcf1U, 0xc900f400532500U, 0xbd000d00cf000581U, 0xa000022e5e93ab5U,
  0x2000000f9f0edU, 0xee00fe00413600U, 0xb000050009001e92U, 0xe0000eff5db38bcU,
  0xd000000f725f5U, 0x19000c00df3500U, 0xe900f0001a002ed6U, 0x80000d7e6e50fd1U,
  0xfe000000f9ddf6U, 0xb000e6003b0300U, 0xcf001900a600d6bbU, 0x1000009e30504f9U,
  0xf4ffecU, 0xea00c4002b3200U, 0xbe000f00e000deeeU, 0x50000fdfddaee06U,
  0x4000000f51ceeU, 0x23000700c8fa00U, 0xe900eb0027002a0eU, 0xfb0000ef05dde20dU,
  0x4000000f9ef08U, 0xd600fd000ec800U, 0x24001800d100d93eU, 0xc0000fcf0fac358U,
  0x7000000f3eefaU, 0xb00ed00dfe400U, 0x13000500f700ef3fU, 0xe0000f0f3d6c646U,
  0x5000000f3fdf5U, 0x45000c0095e300U, 0x3b00e4002200d75dU, 0xf60000e2ecbdea4bU,
  0x2f901fffeecd900U, 0xfe0ffee60241ea02U, 0x8102d8fe030212caU, 0x9fefe0d14e5051fU,
  0x2ff01fffee4e9ecU, 0xfe35fef102250202U, 0xb302d4fea20231d3U, 0xeefefe00e7d9b41bU,
  0x20001fffedb0ccaU, 0xfe10fe2902022302U, 0xec02f7fe960241d2U, 0xf1fefeefccd2d124U,
  0x2f901fffee5bdfbU, 0xfe33fe2402d54802U, 0xd8020dfeab025cfdU, 0xebfefefb1ed4de26U,
  0x20001fffedceae8U, 0xfe2dfe0f02e03802U, 0x180237feb6021b11U, 0xe4fefe02ebded715U,
  0x20401fffed5f0caU, 0xfee8fe3d02d90b02U, 0x47025cfee5020e0aU, 0xe8fefef1050ad905U,
  0x2f501fffee1f3eeU, 0xfefafe0f02ec3302U, 0xa022afeb3022b08U, 0xdbfefe0010ff0404U,
  0x2fa01fffeddf5e5U, 0xfee5fe0802e0fb02U, 0x47023cfee602e40dU, 0xccfefef8fd27fcf3U,
  0x2fe01fffed9d3ccU, 0xfeb7fe2502d4c302U, 0x610241fe0202d426U, 0xcdfefece175df7f7U,
  0x3000000e1e5edU, 0x3a00f500f50c00U, 0x700ed00d9009f17U, 0xf90000c0de0d1cfbU,
  0x5000000faccf2U, 0x1c002100090800U, 0xeb00e700de00d3f0U, 0xfb0000bad2ec3e00U,
  0x400000016dbf8U, 0x4100e4003ee200U, 0xc4000a00fc00f012U, 0xfb0000df22da3714U,
  0x8000000d9bcf6U, 0x2200d000f3fc00U, 0x900b800d800c50dU, 0xfa0000e5e50e1403U,
  0x7000000f2d2faU, 0x2c00e000fb0d00U, 0xeb00e800ec00defeU, 0xff0000e1cdf02f09U,
  0x600000011e100U, 0x4300c400280200U, 0xdd00ea00ce00c91cU, 0xfd0000e715d01216U,
  0xe000000d3f20aU, 0x2200cd00fe2000U, 0x2200e800d000d92aU, 0xfa000005de1b0f11U,
  0xa000000ecfd09U, 0x1d00c8001a0200U, 0x1b000d00d400f0ffU, 0xfad6fd240fU,
  0x40000000a120cU, 0x38008100460300U, 0xf6000200d000bb0dU, 0xf800000620d0220cU,
  0xff0300000103e8f8U, 0x10c011affdbe300U, 0x45000700d4ff37caU, 0x1e7e9040919U,
  0xff000000010be303U, 0x16301fdffcf0200U, 0x1b00060038ffb0c8U, 0xfa0001cfdf08f2f8U,
  0xfff800000118f1f2U, 0x11501feff9dc300U, 0xec005c0007ffbcbdU, 0xf90001badcd9d5d3U,
  0xff07000001ffc8f4U, 0x11e0115ffbdd800U, 0xf3001300e4ffa9deU, 0x70001c403e50ddfU,
  0xff020000010be5f4U, 0x1b10105ffb6de00U, 0x2003a00b4ffe503U, 0x20001d4f2db0edaU,
  0xffff0000010e05f7U, 0x1b10136ff410f00U, 0xfe001b00fcff4422U, 0xfb0001f212eb6cf2U,
  0xff0700000103d0f0U, 0x1bd0122ff09fa00U, 0xd000060019ff0905U, 0xdb0001f3eb03f8dfU,
  0xff01000001fb2205U, 0x1cd010dff7fe700U, 0xcf00e00045ff4c17U, 0xfa000125fa1d32f9U,
  0xff02000001f73117U, 0x12401b4ff65f700U, 0xd000ce00effff1d8U, 0x100001212423e3f1U,
  0xc000000fbf0f3U, 0x1000e800e64700U, 0x2100fd00d500ff18U, 0xc000000f9f7e1edU,
  0xd000000f9fff8U, 0x13001f00004c00U, 0x19001600f0002c29U, 0x100000dfdf8f5fcU,
  0xe000000f5f9f7U, 0xe9000c00030800U, 0x300e10006003709U, 0x300000c0001fdeaU,
  0x8000000fef804U, 0xd7000000088100U, 0xde00da001b00d7c3U, 0xfe00001204052b0cU,
  0x7000000fdec0cU, 0xf500d3001f8b00U, 0xe700e2003600bfb9U, 0x200000809061001U,
  0x7000000fbe602U, 0x800c7000acb00U, 0xe600f4001200b6cbU, 0x800000809000105U,
  0x200000005e0feU, 0xf00fe00f14500U, 0xa003300d3000d01U, 0xa0000f6f802ec04U,
  0x100000005e1ffU, 0x6001400fe4800U, 0xe001300f1002b29U, 0xf0000eaf907f1fcU,
  0x2df07U, 0x18002300f30900U, 0x300ff00fb003d12U, 0x60000e9f71012fdU,
  0xfffffe50fffff890U, 0xfffffb5cfffffecbU, 0xfffffdc7fffffd59U, 0xfffffe49fffff67aU,
  0xfffff923fffff910U, 0xfffff584fffffc6fU, 0xfffff822fffff437U, 0xfffffd1bfffff7d1U,
  0xfffff08200000194U, 0xfffffc00fffffc00U, 0xfffffb83fffff280U, 0xffffdcecfffffa9bU,
  0xfffffebffffffb8fU, 0xfffff910fffff789U, 0xfffff799fffffb5fU, 0xfffffdfdfffff904U,
  0x2c33fcf514451fe7U, 0xcdf5c7d8001fdee8U, 0x1f250d10d6d21a0cU, 0x4305f4cafa1951ddU,
  0x15072aef121c00f9U, 0xef7ed020205ddf0U, 0x23242a1604efebfdU, 0xd8e723f900163bd7U,
  0x3203030e21120ef0U, 0xdceee4e9ef32000aU, 0x351f3646e8ea20efU, 0xc0607f1fa1b1ce9U,
  0xf0cb6e7df112a07U, 0xbb0d97cca91dea18U, 0x1612b5f4b5d30d19U, 0x3f00d2d1e12de4bbU,
  0xf7fabcf3c100f9e5U, 0xc400c2e3a50a0d06U, 0xfa252ff9c6dcd707U, 0x1ffaebe8c7f8eeb9U,
  0x1d0bb800f1f229cbU, 0xb20db7bac8122003U, 0xf21f409c8f438feU, 0x3b2b11f2d303cdd1U,
  0x2823a0c3dc3b24e4U, 0xcafdd2819ee0f207U, 0xf905ad16bee9d92cU, 0x7a2bcae8eccb39c0U,
  0x735c2f2d14cf5daU, 0xda1ceca1b5e6fa0dU, 0xe100dd08e60ca61cU, 0x3031ef05e4ec2bd2U,
  0x2674a012f62b3216U, 0xe620c6a2d4182415U, 0xfaf7cf1b0008c60aU, 0x323be21df62406c6U,
  0x156ff800fad73812U, 0xd8f400db0322ccdeU, 0x140edbeadd054805U, 0x524dd080cdee46fU,
  0xfe60f60f0000024aU, 0x8dee6f833ddd2caU, 0x51beebe1ff5efefU, 0xe025fcf200d80015U,
  0xed7f0b180c15b416U, 0x30cf1adf43b2e4c6U, 0xd21a13c50f02b700U, 0xde0530e8e1f71c00U,
  0xd206f3ebe7070ddbU, 0xdcd8e8dd02e7c1f0U, 0xefddd5bee3e0d7eeU, 0xdf2df8e7f5e3152eU,
  0xff10400021ae3ccU, 0xd9e311fadbdedeU, 0xe7cc08e1f2e6d6faU, 0xc413fdc1e60d18f7U,
  0x261d17e3290bd1d2U, 0x6d511000ae908f4U, 0xe10026edf81afdf1U, 0xf2fd1fd0dc0c1ce8U,
  0x10e419e1f5e9c8cfU, 0xfde8fd00eedfd813U, 0xe1ac10e0f114e1e7U, 0xc9f415bc041a0cf2U,
  0x34fd0ffc04f9bcf5U, 0xe4f8f12cf80e001bU, 0xedc311feec021fd3U, 0xece112bffc310ff1U,
  0x552a3bf338ecd005U, 0x1ff2061815163316U, 0xfcdd2f10002920e1U, 0xd0036e4f2421cf3U,
  0xf3c6c4abd4ce14c4U, 0x6ebe12ed321e616U, 0xc2c9f1efd6abf2e9U, 0xf3dfd8d3f200e181U,
  0x9fd1c890c1ccf39aU, 0xb3cfaff8c3eccf1bU, 0xa3dfcbb0e6a0aaf5U, 0xf3e7efdc0bcea7a1U,
  0xda00110ee8f226e5U, 0xe9d007d7e40a0010U, 0xf4eaf5de25e4ef1aU, 0x4116d707e3e3eeU,
  0x52db00ee00fa1797U, 0x3f72ef60aede021U, 0xfbf831dbf2d71ce6U, 0x27ecd1de423800c9U,
  0x1e18db07d8f529a8U, 0xed2e1100fed8e00fU, 0xe700b8beefeacbf6U, 0xe1f5efc561090600U,
  0x1f3a04ecfb1b243aU, 0x6ec150321f4e502U, 0x1c1dc4d50a16bffaU, 0xfa2619004416f01cU,
  0x162719091f2719f0U, 0xf2c42d516e73138U, 0x52e90dd72818180aU, 0x11eb2ef80de416fbU,
  0x114efc2f1410163fU, 0x3e2d56f717073611U, 0x441033e91523230bU, 0x2c193c0af6181b24U,
  0x3d39eb0e17072838U, 0xa11262c3def0420U, 0x3806f1e0000221efU, 0x18ea1afd151e000bU,
  0x3ee9223eebd3004eU, 0x16d1e4b9fc17dc11U, 0x5d47e756f4eb2ce0U, 0xfb270002eaf5fabdU,
  0xbcf05f7e8f605dfU, 0xdde16000a20dc0dU, 0x29191029f8b70fabU, 0xe109d2f1324426d2U,
  0xfbbb1de1fcdeccaeU, 0x10e34f522206c300U, 0xf8007fe397033cbaU, 0xdbaff8b5716131cbU,
  0xf100082500041620U, 0x1308dfe000cded08U, 0xfb0d042308e80003U, 0x733042bb22228f6U,
  0xdff7fc000928def4U, 0x18f40bea00c4e126U, 0xe00824e8fbc6f9f7U, 0xe40b2117ee2d0c18U,
  0xcfef07d1000690c1U, 0x390a0d001eb2b70aU, 0xc223f9d6ef17f7e5U, 0xa2cf31ed530421fdU,
  0xfa0ef5132b3b271dU, 0xb00db28c5bbcfc9U, 0xd6033bfa03dde019U, 0xe631faf6bd1a3600U,
  0xd00008031332e932U, 0x12ed1fe4a0c4f5U, 0xb6273af71dc6ce27U, 0xd8461518da1b2c0fU,
  0xb9260cf92037a609U, 0x170cfd0a2daab1eaU, 0xbb50f0ed3300f019U, 0x8f224a114104e120U,
  0x10c833041400dbcaU, 0x9e6d2030005f031U, 0xe9ca4e24d42f1cffU, 0xcaab2bede20b140dU,
  0x5e43e0311fff4e6U, 0x18ebdceae2120a2dU, 0xedbce207bf0afe00U, 0xcdcee5ef1bfb0718U,
  0x9e51c1e2bf9e727U, 0x1fed1bed1be7fcfdU, 0xedf0bb2fe31bfc22U, 0xdb0bc80a21faf859U,
  0x13f0300800fcd8c1U, 0xfa1413101817f409U, 0xface34e4e0e80000U, 0xe6a51bd2f9491311U,
  0x1ff0f5e4310e00edU, 0xf6caef01ed43001fU, 0x12fb0929e7052100U, 0x10eddbf228d81009U,
  0xf20408202cf9292cU, 0x1fc6f1c21715ee10U, 0x724abfb3830fa2bU, 0x94eb91c15cfed06U,
  0xefa211e1f4fbdfdfU, 0xf54c646d31fcfdebU, 0xce0c3de3f6bccff3U, 0xf09e0ecf137feff7U,
  0x33c9caf2fdec0f05U, 0xc41218000030f5d5U, 0x22d0836f3ec31f1U, 0x3c11e5091b0ee4d4U,
  0x165cf9dd1ceb0528U, 0x18d6bf0defd3e5U, 0xfb46d935312e0e09U, 0x2b41f504ea8df005U,
  0xf5179d0093b204faU, 0xc4d4f9b9d3f60916U, 0x1bf2cff0e5fcf7daU, 0x84193f503ceb20eU,
  0xf018da07d5b7f9dbU, 0xc2bbe7aed9deea09U, 0xf020f07000fdecfU, 0xf905b7e412d7bf19U,
  0xf81ecf40f9001c00U, 0xd9aea6c7f1f0d3d9U, 0x1b0e2f300d00e500U, 0x639ce1621f4fb40U,
  0xeb23b816cb05f93dU, 0xeeab12b5f7cbf700U, 0xf0f1ecd83a0bc9f9U, 0xe039db0a11b5d109U,
  0x122c18350bf300ecU, 0xda90ad1f1e600fdU, 0xf800f6e02940cf1bU, 0x52e0817f3eee41aU,
  0xc240c441a1c2934U, 0x24c0cbdb13ddfcfcU, 0xf7350c1855f5eb28U, 0x3c032d171a2024U,
  0xce3cec36f81edd53U, 0x1c88efc222b3bf0cU, 0xc9efb98142fb8908U, 0xc71ddace1bb6fb13U,
  0xc50014300b14db28U, 0xfa500c5fbd5defcU, 0xd705f0ce1afaaa1bU, 0xf92d00ee00d6ebe6U,
  0xf6232d4c172af436U, 0xf8b9cae105c2f10cU, 0xed33e63a46dbef29U, 0x1c18ef062306f9c5U,
  0x524ff23500fac745U, 0xf9db2b2018f9e3caU, 0xe839ef1a244800f5U, 0xd214706a4b1c0305U,
  0x70181535f1effc0fU, 0xd6fa052ae910ecc6U, 0x60bfb5d00165200U, 0xd426006b2e1d05b5U,
  0x28e208df22f60025U, 0x9ed111305060df0U, 0xf4fb173900ede7eeU, 0xc72be7641b140cc2U,
  0xe22f030d0eeddc18U, 0x3b1b170923c8070dU, 0xf628f3cd483caaf6U, 0xdc1f3356e9f60ce0U,
  0x7f91420f60f100cU, 0x114b002025c40008U, 0x9d5dcdd0ce1d9fdU, 0xdbdb0824d029f2e5U,
  0xbd94ce51f3209eeU, 0x362a130c05ce2c23U, 0xc7f614f902b6e905U, 0xd1e30818da0b44f1U,
  0xa1ef00e0fa09d8eeU, 0x241e07f6ecb6df06U, 0xedcee0880803affbU, 0xa7b8f1f9d78ef8f7U,
  0x81ebdbd70b15ded2U, 0xa23f1dcf7aad103U, 0xf1acd69ff2b198f5U, 0x9dd2f3dbeabcd9f6U,
  0xca0006f10f190fc0U, 0xf11bf705e5bf0c1cU, 0xedc107c6f78ea700U, 0xd6e515bec5b81905U,
  0xb3de090f2033da0dU, 0xf2cc19e420000a12U, 0xdc35b5fb13f2de1aU, 0xc1d338f711ac072dU,
  0x8dd917da0a0aed06U, 0xf5d7faef03ed1000U, 0xe83fe8e4e1ece2f5U, 0xa6b40000eee6f9e7U,
  0x81ce04ed2406d7c8U, 0x15f510fc17ec150fU, 0xeb403cf5f60ade00U, 0x92b5f015cfe32709U,
  0xeccf23f50ffad1edU, 0x4e62130ed0afaf5U, 0xbb0a0047ead1c7fcU, 0xa7033fc1083ef720U,
  0xc2f40bef0aede3e7U, 0x23fae8f713f905f3U, 0xb816fb2bfde3b90bU, 0xa01413ce04ecf4e9U,
  0xc514fa001200dbf7U, 0x3ecf2e5f80d00U, 0xd4480c30191bc0f3U, 0xb446ea04dff3e2fdU,
  0x5c20131616f427f8U, 0xf60d2a002ff40d28U, 0xe6d0d8e90b1fad26U, 0x1847e1f13232da10U,
  0x3e1520ff1700e8ecU, 0x17ebfae3350f0e0bU, 0xf3fcf7f90d23c210U, 0x81ceef0162400fdU,
  0x342112ed0f0012e7U, 0x15e7ea131600f802U, 0xe0d310db003dc2ecU, 0xf81fdf191c2f2beaU,
  0x3e57fc42030067e7U, 0x352b1d0b160ed0e4U, 0x28153343ed2d3c06U, 0x60020c7e72b2534U,
  0xf563140bf9f4150eU, 0xeeeb0b28f4f9cdcdU, 0x9f709f4d419f3e7U, 0xbe71cbf0c040a13U,
  0xf51522e313eef511U, 0xfce9c708e9f0cee1U, 0x10e000dce3dbe5e4U, 0xfbfd15cf00cb0805U,
  0x25301310150a5bf5U, 0x22faf204fa11d6edU, 0x1505092600093107U, 0x13e6f7d51000052bU,
  0x7100d0503fa0e05U, 0xf2c8000e0ce6c7c5U, 0x7ee22f909f10002U, 0x23d9279d203cfa08U,
  0xf6d700f4e8f9f7e9U, 0xf9dcb94909d9bbc8U, 0xe7c7fccae6cef6ddU, 0xf4c4008b0e0022edU,
  0x122ad100002a2324U, 0xe7c2b7f60006d9eeU, 0xe60ff81313cf242bU, 0x3ef9b5e50e00fbe3U,
  0xfadbe0e9000607f2U, 0xf1b3cf00f6f6b8d0U, 0xbbd91af8ebdef10eU, 0xcdf9c820ef1ed6U,
  0xedc000d9c9ebf5aeU, 0xf5c3a257f5e095ceU, 0xb98270cce0ade7eaU, 0xeccea81fb1943e9U,
  0xbf07db10e9097330U, 0xf5e7e4001450ef0bU, 0x1b00311c07d06600U, 0x29fa21ea7a0ef70bU,
  0xcf14cf15d90c440aU, 0xe7f1c3fce94d0015U, 0x1eea1f35e1c545ecU, 0x8eaf4ef74f3df00U,
  0xb963f203f4f77a21U, 0xdb07c53807411ee8U, 0x150d000f05eb5ef3U, 0x82fdc2159eff200U,
  0x81130dd207fdd008U, 0x2ab4491a3d10cee0U, 0xef1ef6e01ad7c1cbU, 0xf353f7c0e20000U,
  0xb703eec8f5ef12e6U, 0x279a130d1d0fd4e2U, 0xe61200defcb7ceb9U, 0xecf70a11c1d807ecU,
  0x9b2ef5c000fbf7e4U, 0x1da517212c04e7dbU, 0xe31724cffbe3e0bcU, 0x2d05262cb4ec32ecU,
  0xe3ee10d42813b2efU, 0x349b270f22d8b8e5U, 0xe3fbe70819f0c2dbU, 0xb7d71ed4a7cb15bdU,
  0xbf508bcfa0bdbc0U, 0x23bd0ef50fcbb8edU, 0xc609f42915c7bec8U, 0xb1e1f2fe9ccff5c3U,
  0xd50700c51f16c0b6U, 0x39cb161214b6e300U, 0xe426fb0f10d7b5d1U, 0xa7e0e9ef9ddb16edU,
  0xdc38fc171a090005U, 0x130f1e19150016fcU, 0xd400eff30a25cb0eU, 0xbe1c2a0a70de0a0dU,
  0xf906fd0000e80b11U, 0x190008ef00e800U, 0xfbee07e60f30cf00U, 0xdce91d274fb80aedU,
  0xf032e9ede0f80019U, 0xd610fde6ea00e411U, 0xee09cf0e20c7ddU, 0xcae7f70a15a90910U,
  0xe725c40e05fcfa07U, 0x322e81e04f8eef4U, 0xde05e3bf1340d511U, 0xd4f63c2770d606e6U,
  0x10fde800fee51800U, 0xe506dbfafd00ddf3U, 0x5ea30d00611c7f9U, 0xe8e8172a17d7fcedU,
  0xf15f3faf90c00efU, 0xf515ee02e508d8fbU, 0x200c07c02214c4d4U, 0xe8e1160ec7ce1b0eU,
  0xef37c50cf7fe1329U, 0x15c125000adbe5U, 0xe500ecbb3813fa0cU, 0xf7fa431c6ad3f0eeU,
  0x122de100e4f31d09U, 0xdcebd51cf119d3fcU, 0x100a0ed7030af0ebU, 0xf1f91e10e3cbfad7U,
  0xc20f3fd08f60014U, 0xbf704d61bd700U, 0x280000f00d1ddde3U, 0xe0e91fed81d10b00U,
  0xf40ef4fd15021a14U, 0x915060f0b10fbeeU, 0x904f3fd052b000fU, 0x1509020818f40000U,
  0xed0616fe000b0408U, 0xb13090d0500fc03U, 0xea1e11fbf30a061fU, 0xbfa060500041a12U,
  0xf012fefef713f5f5U, 0x30c000bf3fddb00U, 0xf0270ff90f1af2f7U, 0xf9fa16fff317f91bU,
  0xfef6050f06ff07f3U, 0x1a091b1516f909e8U, 0xaf01007f5fa000dU, 0x6f8fc00181721feU,
  0xfd0609080918fa06U, 0x523050b0c09eef8U, 0xf6fd0b111205090dU, 0xfe1318f70d1d0819U,
  0xf1280010ef09030cU, 0x315f00401f1ed06U, 0xf62505021514f8f5U, 0xf30d0b0005e4e000U,
  0xf721c2fbb0b30deeU, 0xbadaf7cd9bfaf726U, 0xcd113f7e3f4eddfU, 0x160beae0f2df9fd5U,
  0x19269903aea81603U, 0xaceb0dc798edf628U, 0x14cbf9d3deedfac3U, 0xde7f7e604f381e1U,
  0xd71ca3faa797e818U, 0xb2070ae497e0f21fU, 0x3c3d7d5e5d9eeccU, 0xe8c5f9ff16f98eeaU,
  0x102fb51e81c21b31U, 0xd4fac2aadcdcfc14U, 0x1bf4b200041be305U, 0x1c25d63a0fa99befU,
  0x1efacac897960feeU, 0xaffaf2c6cd2de905U, 0xfbe4c92cb2e31ee7U, 0x23e6c408fcf3a0d3U,
  0xac5fcc8bbabf9aaU, 0xadec0009f525d812U, 0xad70814b2d917c6U, 0x17b4dde62b24d3d6U,
  0xd630dc24e1030025U, 0x1df303b30e00f719U, 0x221b8ada5d1dca0bU, 0xfe2ffc21f4bbdc1eU,
  0xe800e1d50f11U, 0xdd00f71f0429ec08U, 0x1c1b0a26fde128efU, 0x2a17ef20f70ff7eeU,
  0x3cb13f7f8d0e1a1U, 0xec11183b0a2bfb2bU, 0xdea5300c3e7f8b4U, 0x6b81bd5fb2823f8U,
  0xe02724081816060fU, 0x2d190c072a00ffedU, 0xd63d05fb3a170525U, 0xf81d2a1205000615U,
  0x1820031116fa300aU, 0x503e92bf9e3dfedU, 0xc617190727e00a05U, 0x1d1d0719df15f50cU,
  0xebf91e0e0f06e2e1U, 0x21321b0e03f10006U, 0xef052302f0e308f1U, 0xe90042dbd9051504U,
  0x1ff9e1c7cfd240d6U, 0x62f2c1709110022U, 0xf0f2d238d0fcd513U, 0x6f8c017362ace21U,
  0x2304a0eedec54808U, 0xe1420d33ef470426U, 0xe216ef45dbda0ce5U, 0x582bc31e4613b81dU,
  0x2536caf9f5d540f2U, 0xbf3dd82a041d0013U, 0xe633f311c5e00800U, 0xb1b14105a23e636U,
  0x1d2cd7c5f8e524ceU, 0x16f65ff9f8cdf111U, 0xdbbca7fcf7209ff6U, 0x6160c0d08f70000U,
  0x214bc2d8f2eb22c8U, 0x2de711f700dae014U, 0xc1cde5d3f009b9e0U, 0x1905fa1f2adddaU,
  0xc72eed3fdf936a7U, 0xf1110606f2daf6f9U, 0xcad7cad2c911c9edU, 0x18f13f000f30facfU,
  0xfee0f0ebfd33a081U, 0x6cf76600ebf5d40aU, 0xa3ace1ad0009c619U, 0xe9a2f6ebcbc21be0U,
  0x32ebe7d40eac9aU, 0x1af921fbefe6cdf0U, 0xaab1d6a6000cf600U, 0xf3a8f900bbb9fac1U,
  0xf64829d9f51d8fc1U, 0xf2fa00d5ebdbdaeaU, 0xbca4caa7063eebfcU, 0xbfbc48fbc1b519b3U,
  0xc419d2ed001b0eebU, 0xd3f6f8f8eb201010U, 0x4dfcfb11d705ea0fU, 0xebefea0ad70ae413U,
  0xf100f52ad2f6191dU, 0xd6fbef1fe752f30fU, 0x3ff32728291026f9U, 0x25ddeef55304faU,
  0xd1f4de04d0e4ece5U, 0xbff1ed28d8400a38U, 0x14d12713f5fbfdb7U, 0xd0d60ef4081a191aU,
  0xe440e11110070633U, 0xf4ee08b022e600ecU, 0x652dff83509e01aU, 0xcf42d418e3bdcee6U,
  0xf43b3021f900eb28U, 0xceefc072edcf6f0U, 0xcce808c76025d100U, 0xd847dd03fd4a0acfU,
  0xd1f224f4fe19d393U, 0xe42e29691108ea1aU, 0xd5cb3fd799cecfd9U, 0xa5821981d42b24f9U,
  0xed27d80c11dee000U, 0xf80dfafb2cc711d8U, 0xf911e30607f5d835U, 0xf6fbba00d6d500bbU,
  0xcbec45f411058cefU, 0x4305f1f12e89f2e3U, 0xb0adefd22e12d00fU, 0xc8c1daf3d8d52cceU,
  0xcfb90c16e40c87b8U, 0x3818203258c2dd0fU, 0xc9d3000cf798cb06U, 0xd3d70981c61029daU,
  0x2c211d4405f2201bU, 0xf0206c8f51f2318U, 0x3aeaf4121715e710U, 0x2e1024132c0dea23U,
  0xbf41d1afc031d13U, 0x7f31cf0ee1a0f17U, 0x37002409ee20ee0aU, 0x23090318e3030125U,
  0xe915f607f610ede5U, 0xfcf81a0ff2ef07ecU, 0xd1cc8f5fcd802U, 0x6ece205f8100014U,
  0x3030d00fb07d82cU, 0x1a0ae3f9f0200b0eU, 0x27fddaf00802f52cU, 0x18effa2b06da0200U,
  0xe8e7f2f2f300b904U, 0x15e712e0f314fa0fU, 0x190012f1e4fde600U, 0xfb07f11bdcce0c00U,
  0xe7fbf301f400c6eaU, 0xfdeb0c00ee00f3f1U, 0xd51c0ae80bfcd500U, 0xcc23ecfd0c0009f7U,
  0xd5e821d9e7fce6e3U, 0x1310d417fc24d3efU, 0xe800eef4d9d20004U, 0xb0f7ddf616ee0004U,
  0xd5eb03ee09fae1deU, 0x9f6f4f7f60ad9ecU, 0xdb1bf009fad2f1f6U, 0x810df3fb10e4f104U,
  0xef00f2f60f1bdae6U, 0x16f1f9e8fcf8dfddU, 0xc1480e1126f2e807U, 0x9c29fa0632fa08f5U,
  0xe8d600cd000af3f1U, 0x290719d0e7abe330U, 0xd8b7dac40014e81eU, 0xecce1717a2c70d22U,
  0xf2f2f9fb0f3d0beaU, 0x12e800bdd4d6fa20U, 0xf7c1d7d40405f40aU, 0x52815dec8052aU,
  0x17fae91318112b14U, 0xc823f2d4e9fcf3U, 0xe6ec0b0b1a0e1721U, 0xfb28312a1bfdea20U,
  0xd9e800f0ecf000eeU, 0x61bf6e4cfdfe135U, 0xfaefd2caf0f6fd15U, 0x14f0fddbd7bfcd45U,
  0xd9e60c000efa0bf5U, 0xf9e8f1d5dfe5f82dU, 0x12f2c811e4160610U, 0xa00fa0930d2f932U,
  0x13e31bf8fd100c39U, 0xada1b22f900eef9U, 0xd215f63cec3a3705U, 0x14fa377b07f80dU,
  0x3ac419ed19000512U, 0xe324fdf0dc04cb08U, 0xef5cf52ef6f27a18U, 0x4003f7e8f1ebc3dcU,
  0x47d231eb1204041bU, 0xf21c08edefece000U, 0xfc73e5260f1d2f11U, 0xfc08f9472f000009U,
  0x84c23ec42233918U, 0xf1d451f2adcc4ceU, 0xc17f2c05280506cfU, 0xd257453d3f262614U,
  0xbcec15e700f9cad5U, 0x12eb0be006f009f1U, 0x14e439ade4e0dfd9U, 0xaa00f6f2f5fcf0U,
  0xd30003e8f217e0U, 0x2b172900d91713faU, 0x24e655e3bdef10edU, 0x29deee040432fb00U,
  0x5728eb45f9e93cfcU, 0xf96c231910290fefU, 0x32fb0f1dde221d00U, 0x2fe2ea2a18231209U,
  0xb3130efbfd0fabeaU, 0xef00eb0016ec0d00U, 0xceeadef302e0d8dbU, 0x81e30cf5f3d509e9U,
  0xc7fc14d5ecfcefd2U, 0x5ebd500f600fb0eU, 0xfb0405ece400e5d4U, 0xbbe20013edee00c8U,
  0xfb0c291606ec2f1dU, 0x222cdaf4f6190400U, 0x202939ecf8fb16eaU, 0x211c111de3e8fdf9U,
  0xe2260531f11e040cU, 0xc0afd1e1ff91006U, 0xd2f9e00d0ee9d4f8U, 0x9ffe2d00fd0bfbfeU,
  0xd00ef10af2fee100U, 0xe2d8da0c09fd0000U, 0xdd04d900f1f1dde5U, 0x92ee17faf9d6f6e0U,
  0xca2e07ec0ef90010U, 0xaf4e0c9e9fb0bdcU, 0x521f9f80ff8edf3U, 0xc1f81f0fe7e4f6edU,
  0xd70e040043f100fcU, 0x30005cf89de3f7U, 0xbb17fae6d918c525U, 0xd3f80df50c00f7f4U,
  0x901114dd1c13c4e3U, 0x2a1e1a072093c5efU, 0xdb1695db1820b224U, 0xb5dbf609e8bef836U,
  0xa32a1ee6fa23afa7U, 0x2f0909d32bb3d800U, 0xde04c2f21b32cd24U, 0xb8e53cef0eaff21bU,
  0xd711f81200d2eef8U, 0xd208182debf7f800U, 0x40400f70705dc0fU, 0x7df170023f8db00U,
  0x9d09facbf4eac5fbU, 0xf6e0e5e908e6c1f2U, 0x51bc5000b10acf7U, 0xb4c5f409e6d0f0f9U,
  0xc205f0e8160fbfd3U, 0x6e63de90df3d3fbU, 0x1b20c51f000dbb00U, 0xb7d4310000c6df09U,
  0xa3e01bd91517c0a3U, 0x3e1c754136c01029U, 0x2112f9ccd51cabdbU, 0xcc8c20eb19c41110U,
  0x81003cf6222ea0a0U, 0x4e0a3c0014b6f210U, 0x42c98cb070690e7U, 0x8e8711000d960039U,
  0xbd08eaf31f41b4edU, 0x1ee672d331bd032eU, 0x15378a00e42db411U, 0xe6c0441df58d244dU,
  0xf6d1e40221fcf4d5U, 0xfbf3000ee32bfbf3U, 0x25dd1700e9da00e6U, 0x4da10001216ea17U,
  0x14ecfb112bf30e00U, 0xf0d13f11a0002U, 0x20fc061111071200U, 0x3f0edf0f827f5f5U,
  0x8ea17fb1b2b0b10U, 0x14151a1af7fdf313U, 0xf211d002707f806U, 0xfc05e8fcec0a0df6U,
  0x7adf30df50adfb4U, 0xfe1614ee00f0fdU, 0xdfe23311e3d1f6e0U, 0xd9ba1eed2d350c12U,
  0x6bedaf2f2e006beU, 0xe6000012d7060206U, 0xf2f5e60bbdfa07e1U, 0x4b400e00c04e3e6U,
  0xf1c2e2e20be21dd0U, 0xd0061607ca23071dU, 0xf10423fde0f00df0U, 0x1dcf4ebfe14d9e5U,
  0x10d30a281426e5e4U, 0x1d163e0329ecf6edU, 0xd814f0f31cd800fbU, 0xd3f74be71d242312U,
  0x13cff61e0008f19aU, 0x80a2409f00500f3U, 0xe3fe050ee1ea05e8U, 0xd0cc34e6041cffe3U,
  0x16abc7f8d6d41481U, 0xadfb210cc31ffb10U, 0xf3de3404d9e806ccU, 0x9ce14d01945e2c1U,
  0x7223417271b1504U, 0x33e61b2915f10b11U, 0x6e819271227e31cU, 0xf41d0520d11a3c09U,
  0xc18f0f007fc1200U, 0xf8f1f2f7d8f4001bU, 0x22ec0010f212070cU, 0x521001ffcdecf16U,
  0xf20c031513eae624U, 0xf0ef0cf0f60a160fU, 0x2e0cd4fb002a0d14U, 0xe91a232113c2f52eU,
  0xfdfca7f1bfce0e38U, 0xcbe50ee3a1f4fa0bU, 0x1bfad911c6140018U, 0xfe32e01a05bb9de3U,
  0xe309d1fef6d00f05U, 0xc0feeb90dfeb00eaU, 0xfa18a115df09fa03U, 0x219e00d289a8d02U,
  0xda1118031bf8f229U, 0xf90920c733f00904U, 0xf31dd902261ffa07U, 0xca25061e2eca0e12U,
  0x4f29cf2aebd2815U, 0xb1de1fb4bce3f7d0U, 0xef0c81e9bb050500U, 0x933be0b0bad9beeU,
  0xea13ef0800e40c0aU, 0xb51500c105d3f2cdU, 0xec14a003002bebf7U, 0xde1bf60b0ec1dc09U,
  0xf8212d103716dfe6U, 0x1d442c052ae0f7e4U, 0xc00020f10f260ef7U, 0xd4e50f270b063109U,
  0x465d0951f3c7101cU, 0x2f3c332511e2eabfU, 0xb522f2ed4165d2f6U, 0xd647e74e4224e952U,
  0x5b740c3700d81629U, 0x37521ff920f20cc7U, 0xdb46e600195706d3U, 0xe42600342c0ede1cU,
  0x4d7c001700c63531U, 0x4657f04f1cf220d0U, 0xbd483c00314c11deU, 0x2afa22191e6200f5U,
  0x25170014f500001aU, 0x293a3615bdf512U, 0x1ddd4759c908U, 0x1700dd34f507eb45U,
  0x161014f1000f00e7U, 0x3831001000111aU, 0x809fc08cf3defc4U, 0xf0c9ee1fcf12dd1eU,
  0x193216f50fd805d8U, 0x1551f55122e92308U, 0xe8f952f0122cf9d1U, 0xedb41ff8c769e400U,
  0xfdc1b0e0f34e034U, 0xef2942583eb6f548U, 0x23eb40ea7522a5c9U, 0xd30dc444b51d0a1bU,
  0x111cf6220505fcU, 0xc219173913dc2253U, 0x18f5231d1428ccb5U, 0xaaf1e037ac29f906U,
  0x1b4f0e1d37ed08dcU, 0xdc1ec67f39b3303eU, 0xfad454f4142dc09cU, 0x95b831f1a2280bf7U,
  0xe936d3259cb6fc2aU, 0xe9000fc9eddf1e42U, 0xc4b8d0dd1000dfd9U, 0x1e22f72218e7d1ddU,
  0xe603dfedc7acf10bU, 0xf5f6083cfaef0d1fU, 0xc90024e607f1f4d4U, 0xfbe20a3b0010dccfU,
  0xd8c8eae6d4bc2fd3U, 0xdef31b420822f805U, 0xb7086606e8d312a6U, 0x39f82a22171803cbU,
  0xfa00d5fabbc20039U, 0xe1410ece1ef1f3eU, 0xe3ce00f7d1e00505U, 0x1f160305f5f0cde4U,
  0xf1d5f7dbc5960ffbU, 0xf819173a07130400U, 0xd1132e13f3e100dbU, 0x1b0b1e27dc2ed5f5U,
  0xddfbf220d7c426abU, 0xf8fb2e4f1c0bf4f2U, 0xd3336122e1e10dbcU, 0x3c263008e10dec1cU,
  0xbee113cc980f03U, 0xd51045cd0611f62bU, 0xef3f431e0c91d07U, 0x71ed620081bbb00U,
  0x926f0fdd1cd2be4U, 0xe40d31e10e18ef09U, 0x51d2240f41126f7U, 0x15262627f314bc34U,
  0x247fd43cdabb1525U, 0xd9063ceafb1b1600U, 0x1434b73efa6f04e1U, 0xb58202a072bb839U,
  0xdaebfd0c22250006U, 0x14eb00195611ebecU, 0x8dcd250d7d11bU, 0xd20cd3d6f7b54606U,
  0xf81a0707003103f8U, 0x16f4d7be0b000d29U, 0xaeec0e4315bed19U, 0xf5f81cf9d7cd0910U,
  0xf61109e507130007U, 0x1ef0b1bfc6f92f3fU, 0x20eaaeee040e2a26U, 0xeb00e80b00aed7ebU,
  0xb2bd00fc0f06e1e7U, 0x1000f63432fad2ddU, 0xd2f105ca19e3b506U, 0xa5efe7d2e9c9fd00U,
  0xfc000010fa102111U, 0xf313d1ece906f712U, 0xf9ec061b0933f70eU, 0xecf7100c07f7ee0aU,
  0x1ef7f718c4033f14U, 0xf000b9d9db11060cU, 0x2f8ca2bc9f42435U, 0xf705fb2156d0d8fbU,
  0xc2f32219174626ccU, 0x3000081131e9b3d1U, 0xb2f527da3bb7c8efU, 0xc10fc2cae20622fdU,
  0xfc28f615f42358d0U, 0xf70fdbf2ea2cc6fdU, 0xc8f32d15e9e83113U, 0xe8220e18132612e1U,
  0xe129ef2bedf57fe1U, 0xe00eacf8d6fcddeeU, 0xdb00d817e9b42937U, 0x736e9145400e3f3U,
  0x139ab2bf0a1cf6baU, 0x9cc4bad2f34de410U, 0xd2ca41c0cb11f1U, 0xae5bcf13000c521U,
  0xce01fd61628e0f8U, 0xb0d7b5e41d42d912U, 0x1b03ef00191400f7U, 0x1dfcf8004304100cU,
  0xdcf71f2c0634dd16U, 0x17bdcef20f521930U, 0x1e10f73a432af7f1U, 0xe5123cfc132b0614U,
  0xeabbbb0e5eeb581U, 0xb60fdc00c4e9ed32U, 0xe6c9c821a3daf4d2U, 0x27b5bc0cef12ae07U,
  0xaf915df18f7e6aeU, 0xb6e7c8e823e10515U, 0xf60e0b2af200eae7U, 0x19de0df3000f1106U,
  0xe630281ff81ce823U, 0x23d8edf422eb1e18U, 0x11f9f7420adce6U, 0x9192ef0e5080009U,
  0xd4b8aec2dc1abbU, 0xb228d2dcc539dc2aU, 0xced3a3249bea720bU, 0x6dad9000817ce00U,
  0xf5e2f31ff80cbcU, 0xa215d0f51022f716U, 0xf200fe0fe0eb09f2U, 0xf1ec34f5191d060dU,
  0xd5421ffcf1e7001bU, 0x3c00e4f916df0f06U, 0xdaf2050822e7e3edU, 0xcd0849faeb12f6eeU,
  0xf6f90d0019201816U, 0xfaed0a472945ee24U, 0x6eb0b2a16561427U, 0xfb0907716f22004fU,
  0xe9001208eef51100U, 0x4cae9040505f70eU, 0xf9fc23f513fae8U, 0xb0424380b1df90aU,
  0xfe17f50535091f06U, 0xf7e1da28041bee11U, 0x80d1535311004fdU, 0x2f232c1f1707081dU,
  0xf01a09ca0b12f8e0U, 0x71e27142b13f2eeU, 0xd40cf2e72d0bfa00U, 0xece21cda02f7c2U,
  0xdafaddceedfcd2ceU, 0xeff7f0d5e6cac4edU, 0x8f03eedf17edba0aU, 0xc3c5fc0081f000c8U,
  0xfc1106e42819cadcU, 0x40feffb06bed304U, 0xae1f000011f5bef7U, 0xe9f42f07a9001d00U,
  0x17f5fbc0f80619d0U, 0xf2594859121911b1U, 0xea19f41509b81400U, 0x5e3ceddae4fea8cU,
  0x18f5f5f0fb00f5c9U, 0x500010050ffad0U, 0xc43df61e0fc11a27U, 0xf204e8e285f6339aU,
  0x1f5300f7fb202ad2U, 0xf43efbf337f7f7ddU, 0xd555f00c10c9001bU, 0x6436ce90f2f9d2U,
  0x3add05ea219f00U, 0x291c571c50bbeae4U, 0xc546d1d9f213cfe4U, 0xc2ed74eaede22743U,
  0x1510f3ef07eac100U, 0xcaca00ec12d8fbd1U, 0xae3df810efeb2ed7U, 0xeaf911d3e400d2c7U,
  0x2232fd17c6bddbe4U, 0xb3cdeff80fde00ccU, 0xcc18f811e9101eadU, 0xe61e24ccddfaaee2U,
  0xed9111ae0f419d8U, 0x1352411b3a201016U, 0xf74a130be8f8dfddU, 0xcd3741d8eb45105bU,
  0x1608b705bbdf18b6U, 0xaa0919271822ea00U, 0xf526080cececf5cdU, 0xf80511c21c16d2edU,
  0x1319e729e9a30f00U, 0xa1cd00c00a1411dfU, 0xb2030f1f41805d7U, 0x321534cf09e6bff0U,
  0xb4fafab2ae2181U, 0xe863411b080800f7U, 0x8bd272fb8fae8c4U, 0xedcc54de0531ae57U,
  0x3514c42495b856c8U, 0x8b312113f324f4e4U, 0x19e6002c9b1c00deU, 0xfa0dd82bf9c51dU,
  0xdb51d200c0bf3c27U, 0x8ae921b91121d8c1U, 0x53cdce0bd4380fccU, 0xf54d4aec1ab3b70eU,
  0x3a14ed08fde919f0U, 0xaff7d0dae228f30cU, 0xdd09dc70e2f73cf3U, 0x320c1208fb2bd6e7U,
  0xecf31afd250ad603U, 0xed1cf8fb14e40bU, 0xe2fdd01013130a04U, 0xf9102b0eeb0a0024U,
  0xacd122d6042190c2U, 0x32cb08ed1304dffbU, 0xe5d5ddcd0026c404U, 0xafcb5af3d6f61821U,
  0x3419df19f6073209U, 0xc817d1edeb11ea0eU, 0xeffdd222f0ef1f0bU, 0x3b0d0300ed1b00eeU,
  0xda0b16001110cb0fU, 0x7f2130a05d4e406U, 0x4efd2d51400e800U, 0xe41510f1cce01100U,
  0xcaea0ddf0d1081cdU, 0x14dc10e504d7f1f9U, 0xfce0edc0060be41eU, 0xb4e62fcdcddf050cU,
  0x1e1fe300dedf3c3fU, 0xbf0adee4d13fe708U, 0xfde6e70af7031407U, 0x421400f2d9d2f8f0U,
  0xed260800f100db20U, 0xe7fd210004d8f5fdU, 0x9f2cce70ffce6ebU, 0xe128f9f1d4f5f5faU,
  0xd10a0300e9f78103U, 0x10e422df00e80c00U, 0x2f300ee1f13f709U, 0xd80b55f6d600eef9U,
  0xd726041e201ae91fU, 0x24dcd53f40eef8edU, 0xfa2756f639b2f3e2U, 0xdaf804ad10181edaU,
  0xe038160e0f3cfb36U, 0x12deca4916fbfa00U, 0xef0a4c0d3bae03e2U, 0xfcfafcc700070fe0U,
  0xc80f501d0b10f30eU, 0x2515072d29f5ecfcU, 0xfd2430e66cc9ede5U, 0xdd08d1cb08f9f4c6U,
  0x1239e4fceee5e61aU, 0x1f96f53415f72af1U, 0x622370400e1f6cfU, 0xf9fbf1c0071f16ddU,
  0x720d8fcf0f60025U, 0xfc81e81f000d1af7U, 0xe913151a22e1faf3U, 0x1b240be7ed110bdeU,
  0xfc033414070bf60fU, 0x11cb062a2512f3f4U, 0xe2b250f4fea00f4U, 0xf52016fcd515fce7U,
  0x2216dbe1e3daead1U, 0x5990032d40032faU, 0x20151d0eacf029cdU, 0xcebdf5e6492f00dcU,
  0x2408d2dbe3e303f4U, 0xf5831debfafc27e6U, 0xc30f9260d0733f6U, 0xf0f0af9190ee0e8U,
  0x42b0d0af5f2f637U, 0x6ad371f1df523dbU, 0x1f4aeb2450fd2ae4U, 0xfb373016f5fbe92bU,
  0xe8ce1bf1f623dae9U, 0xef5dd1ef3bfe523U, 0x8c0c52da13f5e0edU, 0xf600fa08ec0010daU,
  0xd600eff7fd0ce8e1U, 0xaf1d2f0e497f31cU, 0x8cdc00a317b5e61aU, 0xf7e7e7ce19ee00d3U,
  0xcf140b422c28c73cU, 0xaeece0a0081fdfbU, 0x90fdd6b34ac2c02bU, 0xf41d09fc1cf00e33U,
  0xe9221ff4fcf4dcc2U, 0xaf0ec35f1d30015U, 0xc1e133e4dc0bcbe8U, 0x8db17f5d6152817U,
  0xd4000df8fcf9e1e8U, 0xf2e9f008d7fa23U, 0xd8d610d20dd2ecf5U, 0xe8ecf2e9efe5f9e0U,
  0xe923fb280606df2eU, 0x9f6fce512c11821U, 0xc808ead01bfbd9feU, 0xf120f20800f9e713U,
  0x2530f318f4d4faU, 0x1f09fc1e00c51021U, 0xf6ec21e4e010ebd7U, 0xf6d941f2f5190925U,
  0xa102b1c0ff7dc04U, 0x161af6332cf90228U, 0x150713f1230013fbU, 0x122400fdfd19f6U,
  0x14322b2cf4edf111U, 0x340d08d820ea2e4aU, 0xfa0febeb45350000U, 0xfa1900260bdaef03U,
  0x9ff6b4ecc6f03507U, 0x80febe9fa326220U, 0x29dd0ad519ab28e1U, 0x15161912d7efc5e3U,
  0x9cf2e4ecf7082f0eU, 0x1819eb00e7154b33U, 0x27cb14def6cc24f2U, 0xe103800e1ece9ddU,
  0x81d4c9fee7dd3920U, 0xf11ed621ef346355U, 0x46bcf5dae1b930daU, 0x1a49f9d9dfe4e0U,
  0xd10df0df000dfd23U, 0x2500f4ef001323cfU, 0xf5d10b1e17ec25faU, 0xe1002024fafaf900U,
  0xd30405f21000091bU, 0x1c05000713fb1ee2U, 0xe7d5001313150f03U, 0xe0002d1507fa13f9U,
  0xcf0009050009090eU, 0xc1f06220c0a2bfcU, 0xf9d60313f7ed26fdU, 0xf71551fef9f316f7U,
  0xe80a09b91306eeefU, 0x1e09fa36070b1aa4U, 0xcc000315f7050f0aU, 0xf8f330280000f111U,
  0xf800f0ddfefcf307U, 0x1409f90a07100ba9U, 0xb50af8001d14fa09U, 0xe2112937f9e2f7fbU,
  0xe80019db0a0af90fU, 0x1300150ffcfb14c1U, 0xb10bdc1008e80009U, 0xd7194335dcedfa00U,
  0x14ec090317fd00U, 0x14dbc7e900f0f7f0U, 0xf00c90000dd0000U, 0x19f4e1ec13000feeU,
  0x10122726fc26fe2bU, 0x1af6f2070fdc00f1U, 0xf7121cfc21ec0d08U, 0xe3240607090814e9U,
  0xfcf5e80ac504fd0cU, 0xfdb60ae9ddede4U, 0xf2fef900facbf210U, 0x1900cdf40f0000d2U,
  0x110bcf00e2f31712U, 0xe40da6e2cff9f5f5U, 0x14e6ede1fbeb0403U, 0xfae9d4eb1dedf7f8U,
  0x400e5f3dafeef10U, 0xe10cdbe5d5f0f400U, 0xeffc19f610f106faU, 0xe3facfe500ec15f5U,
  0x24f2c0dbcb020aedU, 0xe0fbbcbce0eff0efU, 0xe7e6f4f300e112e7U, 0xf5e9a9d7140008e8U,
  0x2df8b900dff01d25U, 0xb6e181ad9819f3fdU, 0xfad900dbecf305U, 0x1316afed0feaecfdU,
  0x21fdc006fdf4fc12U, 0xd9f2c4e2bf0b0af8U, 0xf600f5f20000e7faU, 0xf41ab400f40f1922U,
  0x27ea97c5c5f610ddU, 0xccf09ee2b312f0e7U, 0xe710f1dddee210U, 0x20039eedfe0810eaU,
  0xbb3de4eb242e3ceaU, 0x1024fb2108c0980aU, 0xd523081d36e7c100U, 0xed00c80f29fdf010U,
  0xb731e3e2001948d2U, 0xe223b01ce40a8119U, 0xdd0d12ca14e2e5f2U, 0xebd0edc2c821e813U,
  0x9322b6d006ec22d6U, 0xe056972ff4489309U, 0xbc0af3bdc0f6f7d6U, 0xbd933abfba39fd1fU,
  0x2b291bf808254c14U, 0xae2000afab9c2e9U, 0xc9fafd27f524cb11U, 0x1122df1c3a2108f1U,
  0x1ef1f9000021ebU, 0xf6c0f631f9dfaefaU, 0xdc050e16f0debff7U, 0xc200c6c8c7161cf1U,
  0xad05cfc82f1014ccU, 0xf3fce016081db614U, 0xd6391fdd0000b0e3U, 0x9ac6edcba1d70015U,
  0xf20b0a20ee053014U, 0xbf2441a06d8e8d5U, 0xef00074abd13U, 0x1619e6146c0eebf6U,
  0xfa09272907e52417U, 0x1ca32c0815cbdcf3U, 0x43af6111b00d311U, 0x25f1f9150ef02bU,
  0xc627c000410ceaefU, 0x4d407fc07dacefaU, 0xc44e3f83928cdf3U, 0xa7e8dee7ade0e917U,
  0x3acdca04eae1d5f3U, 0xefdc1502fa221b3bU, 0xc4fd120b093000efU, 0xde30f735e6f1f4d6U,
  0xad812f7bcdce61aU, 0xe6d81b00e118000bU, 0xadede118071509f7U, 0xeeed1b31da030000U,
  0x14ebe40deb13f705U, 0xcff7230ef430f60eU, 0xe5cc0e1626dc1003U, 0xec232b06020d1458U,
  0xedf9be0e040b0533U, 0xf5ba1d03070aecdfU, 0xc0481d133df62112U, 0x73eec3dd2d808c4U,
  0xcefbf2f3d305f705U, 0xedcf0e0fe5eec6cbU, 0x9dfd19f913adf000U, 0xf9080809a7e81ee9U,
  0xd24ece9f01008d2U, 0xccea1338ecf5d4eeU, 0xdadb1e13f5c0db0eU, 0x14005ce2d12bf7f9U,
  0xd20dbf00050d3ce9U, 0xf8e4f50eefddc8cfU, 0xc2fdf2e618a3dffaU, 0x1b18f0f7d5030bddU,
  0xd315ecd403042505U, 0xece2f11205d2c3d0U, 0xcaf71ad50ca4d81fU, 0xd1b00c5e6ec00edU,
  0xf53cd30ce9e43d13U, 0xdcd6d235f7d6d3f8U, 0xf7e000d523e0cd23U, 0x157f53df1811f5e0U,
  0xf7f3df27f81028feU, 0x231ae1191d0c1019U, 0x2f417f915f21104U, 0xcbf305143502f828U,
  0xd708fb36fb2a1f18U, 0x811010d04fd040aU, 0xecfb17f12ae90b2aU, 0xf41900fdf9daf438U,
  0xbd14bd18d511de0eU, 0xf4fc00add7b1dd0aU, 0xd800e3cc3a20b900U, 0xba060706e581c20cU,
  0xec20e124fa170808U, 0x90a00fa06f011f6U, 0x2000fcef1529f7ecU, 0xcf20002814c5e11cU,
  0xec13c319e2f0ee10U, 0x15f214daf6daf6f2U, 0xe708d5ee241fcdf5U, 0xc3031129e9adc71cU,
  0xcbfec811c6eae222U, 0xfb18c1d1bfedfaU, 0xdaf7eada3114b700U, 0xb3fd0f35e1a5cdf4U,
  0x1d45e459ddfa1338U, 0x4f302dde7f71ef1U, 0x251d0eed1c362512U, 0xd738122202a0cf17U,
  0xfe1bd423c8d2182cU, 0x5f709cdc7e411f3U, 0xa0be8fe0ffb0efeU, 0xe1220219e5b8a604U,
  0xe2eed019e7f51922U, 0xe5ed32f7f1d7fdf6U, 0xefef21fc03cffb0bU, 0xe31bebfeeddde116U,
  0xa00f30be113ce0bU, 0xe709d1e207c4f0f3U, 0xc1d400d11bd8c8f8U, 0xeb22f4d7eaf2fdb6U,
  0xfbe2f9fbf0f6ef05U, 0xfbe0c9def4f5ede1U, 0xdcdefe1100cc0317U, 0xf10008ea09e405cdU,
  0x8dd17edfbf91406U, 0x180df8dcfc0608f0U, 0x9da12f809e920fbU, 0xf0ec0aebf30500f2U,
  0xfdfc0bebf405c019U, 0xfd06d1dc0cbbe9eaU, 0xcae8f8e5fdf9d30cU, 0xc1fcd90006f4f4b6U,
  0xf6e6001d081a0f27U, 0xb16d7f509f213eaU, 0x3eff41d1ae2fe18U, 0xe80df84122200d22U,
  0xd10e03f0052000U, 0x1220ed1c162f13ddU, 0x48fd1727f7d1201aU, 0xf3fb26041bfa183bU,
  0xe61be300f3cef0U, 0xfd1ff2ededc3e3f2U, 0xd9eb06e208fe0000U, 0xc6ebfb1b28def8dcU,
  0xd7e5f6f11210U, 0xe134ecf800e3f9fdU, 0x22d90cdcf2ebf70fU, 0xf8f3fd08370b0038U,
  0x50bfc00fc25U, 0x131400000f1b1d00U, 0x71ef1000f9e7fa04U, 0xf7fd130a2a0bf47fU,
  0x411d263bfcdad10dU, 0x41730546f43203b9U, 0xf9fa3025e3fc1ab5U, 0xfaee520bdb7f131fU,
  0x492b1515dcda16f3U, 0x1a001e29cd4a24d1U, 0x1cd54b0d05e50ee6U, 0x91213e7ea21f219U,
  0x1d4e394005b1f77eU, 0x401e45f624fa09e3U, 0x2129e6df222ac5e8U, 0x1743181fc5d7c000U,
  0x18190df1c5e12bbaU, 0xf70c0623082310fcU, 0xe3bd0028e4f7e1c1U, 0xf8b940fcdd3509ebU,
  0x130009e4b8b6f40dU, 0xead600f4ec2c0aebU, 0x23d6f51e0403e0ddU, 0x15131400e1ffd9cbU,
  0xd91409d6e5afde3cU, 0x4cf21b32bf403f0U, 0xf918f0dbf623c5d9U, 0xe332fd1c00d0bcbcU,
  0x19f8fcd2accbcedaU, 0xd6eb31ec04190523U, 0xd3c302edde09e3beU, 0x23df1eced817e6d3U,
  0xf5d200dd94c6c5f5U, 0xced0f4dc00f4f311U, 0xc4c9d3e31d0cd6d1U, 0x150e05e0f9fac1b3U,
  0xfcecf7dab2b5d0faU, 0xd1c716b71de6fc00U, 0xc4d9e6bf04fdc8c9U, 0xfa24ced500e6b3c7U,
  0x2c35fc00f0df3010U, 0xb3355ed283b4decU, 0x605db1309ea0013U, 0x321e4af5f512e730U,
  0x273b16fae6f92e00U, 0x9245a100f3936eaU, 0x9112412171b10fcU, 0x1a205400ae1a002dU,
  0x232b46dcf4fb2fedU, 0x11206726f5382dddU, 0xdcf161dafb1715f8U, 0x1e295fe5e43c12e9U,
  0xd080000f4f41b06U, 0x12161700170e2dd2U, 0x150fdf1a00f20a25U, 0x49ef1412d40cf119U,
  0xb120c1000133405U, 0x10f11a1d09091fd9U, 0x1d1bf0251514100dU, 0x1c0b1f2681090930U,
  0x1b22eafa0b3ceaU, 0xbee3116fe0a0bc8U, 0xf2f70ef2051e0c03U, 0x1c2a35fcadee1009U,
  0xfbef0ee1f4e90df7U, 0x1417de2c15fd1babU, 0x1515ce15f3e6140fU, 0x14e9eb0ee300f011U,
  0xf5f915f012f50d09U, 0x2af5f01b09fb19bbU, 0x1726e30f0b030400U, 0xeb04051892e1003dU,
  0xe6f01bdaea040ff7U, 0x1ccc141500f2f29fU, 0xee1dd8f804f30000U, 0xea1e2dea9fb1ec50U,
  0xd1432000e1df404U, 0x2af31e30111c10f0U, 0xf2001df7f830f51cU, 0xf9001406cc30501fU,
  0xfa06fbe21922faecU, 0xc0b00fd10e61000U, 0xbfcfef4ed22e81aU, 0x9f52a0017f70c16U,
  0x10e8f9c8f3e1200cU, 0x8dfccdcdf1205f1U, 0xf400e00bbff11c22U, 0x4102f1051b00c5d6U,
  0xe30b29eb1c0bee05U, 0x2500231009f1e9f3U, 0xce1afbdcf81ac600U, 0xf5fc09f5dcf60910U,
  0xb0edffa0a34fef6U, 0x1b07fcf208e4fe02U, 0xf908d60015f8e704U, 0x81818fa12f0132fU,
  0x1d08d6c3bfdb14dbU, 0xccc19cdbbff2eefaU, 0xe5eace2b96d2200aU, 0x3000d9f32c0a92c7U,
  0xf10945ff2226ed0dU, 0x2c2e300813ead5fbU, 0xd429fce429feef1fU, 0xec1411f9cdf32f29U,
  0xd26e4f0dd2aed07U, 0xf70af2f104fef500U, 0x506d6110fef06fbU, 0xe24fc12eb0af11aU,
  0x27f29cb19eac24eeU, 0xa1c581d2ad20e9feU, 0xf1f8b72d9bd43005U, 0x4109a306210793b3U,
  0x83b46ef3c0b0503U, 0x37da0cfd4607b2edU, 0x8051eac133fa60aU, 0x2d31069bd9fe3147U,
  0xe8160ceb2518f8eaU, 0x10d1002146f6b4f4U, 0xe014ac2927b2deU, 0x171bbbb60718232aU,
  0xd0ec39100800d2f5U, 0x4c0e0704d7d4c1e6U, 0xedfbfd871d478400U, 0x6f50ef8f2e4d927U,
  0x49223e003419eefcU, 0x27b900101e1c16faU, 0x29053b06f815f014U, 0x31d819f1f7f830ddU,
  0x380526fd0019efe5U, 0xf4b0f6f61aea1ee8U, 0xf5f4f5f81a00e7faU, 0x1b00dd1b09d52dbbU,
  0x43eb2d001b0adc19U, 0x28f633dbefa41fcaU, 0xe620d5e43525dd26U, 0x1703e02b00c207d3U,
  0x39d3ddc8c5f00000U, 0xc9f509b73d2a44U, 0x5e0eb36b3d32f05U, 0xedc564100f5e99aU,
  0x21ddd5a7b6f11200U, 0xa2c3cdabc53b3314U, 0xf7deb831c3b61bf5U, 0xf08f25000c2cb8cU,
  0xfebeecbe2dce52fU, 0xe4ec0981daf25cfbU, 0xf200db33ed030e28U, 0x4c18ea6aedb2d3abU,
  0xb7111de74c14f209U, 0x6145124e1deaf900U, 0xb213e6a4187fb420U, 0xb499325608cd18dbU,
  0xbc050be51c31f00dU, 0x623c141423f812f2U, 0x9f15e2c03e16e738U, 0xfbcd384decb82a05U,
  0xcbe240e60c3af5f5U, 0x24190d1325e613e3U, 0x84ebf6d22bd4ed11U, 0xe9320700fb2819U,
  0xcd13e112dc23d5U, 0xfa1226151428e2faU, 0x19f918e3cb251006U, 0xfbd70ef91ae90c2fU,
  0xd1417f7efd74cf8U, 0x1b321f28ed30f5e1U, 0x7090eeff0f600f7U, 0xff818eb070a1e08U,
  0x1c0d00ea0846edU, 0x81cfaf6e728f4c7U, 0xf0f7fcf20cb6d62eU, 0x130d31e40dfaf52dU,
  0xc1e005ecc7c3cbU, 0xc8100af5cf19000bU, 0x5ac62f249d5e00c4U, 0x1ecdeb2c4000f00fU,
  0x1de7ca00dab2f8f9U, 0xdbf7d6ef9d0d000cU, 0x5aca2d16b745efceU, 0x27e4eb0b3cf5eee4U,
  0x4f12d114a3c73b31U, 0x90dfdcc1a23600fbU, 0x4cace42ccbf62cefU, 0x5d05d8f94119dff6U,
  0x37f904e31dfe47d5U, 0x11071d262d3f400aU, 0xfe03d4ef7ed6500U, 0x36f41008064121dfU,
  0xe8f1eacdee08edb6U, 0xf0e74f0608fe0bU, 0xd1d61dd5e2dceed7U, 0xe4aaf2b5f3fa03acU,
  0xbbf60cd1dfe6c8c2U, 0xdd3fd00fdcaf114U, 0x90d10092f4efb2ecU, 0x8cc20ecfefe1f9ccU,
  0x60b130910064716U, 0x1c2511191436280dU, 0x2e032a251b181bf6U, 0x212115320dfb1058U,
  0xdcec00bc1509eedbU, 0xa05fbf0f9ff0a00U, 0xe507fee5dbf1edf3U, 0xc0c8ece9f8cb02d9U,
  0xd10c0ee703f1c6f9U, 0x12eb121012d5f300U, 0xa5f8d8be2500d5dfU, 0x81e9080600c4fbf1U,
  0xbfc0809000c2230U, 0xc002d0f15f519f1U, 0x53e3e80a1625f7fcU, 0xaf7101100e90059U,
  0xdbe20ee61400f8faU, 0x8060b0b0f14fde9U, 0x5f1ef001325fbfaU, 0xd2f6f1080ad7f517U,
  0xf70f09e200eaff18U, 0xd001efd31faefeeU, 0xd700ede61b11f8deU, 0xb60c1d1ffee7d7f3U,
  0x151007154200b6f5U, 0x42e84bd133d11716U, 0x22f700c00d12d1e3U, 0xb111cc0006eb1811U,
  0xdea02e326e5d5f5U, 0x37f715140d10ceedU, 0xd81400c50600d9fbU, 0xefe4cef40b070da3U,
  0x25de00e8d0ecd2e0U, 0xfb1c7f0bc820b2d3U, 0xa5fb2310e8cc0000U, 0xfcb7ee231aded2U,
  0x13f000341bf8bb10U, 0x3cd223001213423cU, 0x490a18f815190bf1U, 0xf137e9fbe1de1c14U,
  0x13e800150b0bfa1bU, 0xefcfa0a0d080008U, 0x16f6ef1ceb0302U, 0x934d4fc0414f5b6U,
  0xedf9daf3e2f629e7U, 0xde0d45e5ef11bdcdU, 0xa9e700db06d1000bU, 0x1500b6eb39fddbd4U,
  0xdcd370b13ce8335U, 0x25d02aee15176d31U, 0x4e00f9e30344eedeU, 0xb72c0af90707f400U,
  0x31e3f600e8fbd10fU, 0x1ce12cd2f5f21ef5U, 0xf9dd19e83d24070fU, 0xdb0ac5fdeb0dd7b1U,
  0x20d6b5f0dbeb14e5U, 0xc4e254b0e5d1cbccU, 0xb1a6f0e411dc0000U, 0x27e989e01ef9c6bdU,
  0x917f1f409eefcebU, 0xf12a1616eaf009efU, 0xfb120d02f1d1f6f4U, 0x5f305c30afce6e7U,
  0xa33fd12171dfbefU, 0x1c3c1d210e090bd9U, 0xf621f519fb000007U, 0x13e7f1ee141008f0U,
  0xe900eff2fb1f0ff1U, 0x71afc0e0b27e8ebU, 0xda1800f912eb0008U, 0xd9e1e8f42f15f6e5U,
  0xc0dcbe8d0b90c03U, 0xd7090005c300f600U, 0xbefecf5f1b8f1c9U, 0xdff90400d6d1U,
  0x1b2000fa0d0319eaU, 0x1117171ded0800f0U, 0xa060c0af2e816faU, 0x3f3ea00f321feeeU,
  0xfc0c0507153209f5U, 0x1b151d130010e2deU, 0xe600f8002ddf0724U, 0xfdebcc050f041bf9U,
  0xf0de859ba29b12ddU, 0x98e0e4008100df14U, 0xfcdaf7fbd3a2f5aeU, 0xf7c100fcde9dbeU,
  0x1cf310d002db02f4U, 0xd9f412f6bb0cfc18U, 0xea1500e8b706d7U, 0xfd02deedef18cfe1U,
  0x9ef0c07230bfa19U, 0x15121e470a0ceefdU, 0xf5fd3f1b19a91f1bU, 0xfbc0f5f7221b00U,
  0xd6a005e1d4caeea7U, 0xc00c0f2bc020e30dU, 0xd4d226e2a8d8c6aeU, 0xd781f7b90d072fd8U,
  0x4f31c07fa01e7ddU, 0xe9ea231bf317f8e5U, 0xf1e33af4e7dae2bfU, 0xe5c412e208fb321bU,
  0x3f808f00d0e0fddU, 0xf6f91221001ddfc6U, 0xe3f636ea0ecbe3dfU, 0xc5e10ee2520412f5U,
  0xead2fdeefef911d4U, 0xf018f10ce728081eU, 0xb003cfdd7f9f0d8U, 0x4cefce1eb000ed5U,
  0x73ff3e3eaebbfU, 0xf9162022eb3a001fU, 0xf4f20ff9d819e7c9U, 0xdec91ae8e6fd2d00U,
  0xe42a000000d7bfU, 0x80d1d2d061deaf1U, 0xcff820e9e4e9e3c2U, 0xabc52add1f152ef8U,
  0xf5eae10f130011e7U, 0x1bf5e7e8f4f90a27U, 0x170e4817ebfd26e9U, 0x22ec0af3df10fad4U,
  0xf5f4ea0602dc1af4U, 0xeced04fdf1130030U, 0x17221008d3050be6U, 0x1ae710f5e70912f6U,
  0xc4210710ec0ccdU, 0x11052942131eed0fU, 0xfc1b53fb05ec14dbU, 0xd7e233dc060f1b0fU,
  0x4cd6adaaf00b17a0U, 0xc7bfe9ee9f37fb0bU, 0xc8eedc35c7dc43feU, 0x1ff6b004b80bf4b4U,
  0x48079bac070521c9U, 0x89b6cfc0a0fc05f6U, 0xd0ef8b13ade414e7U, 0xf1e1c50cc1febdc0U,
  0x311fb1dcebf512f6U, 0xaacbcbe8c40df4edU, 0xf316a20cd8e025feU, 0x1320e507b7fdd9d2U,
  0xf9050dde0a1b3ce4U, 0xebc0be214f0ecU, 0xe919000ee9f1e41eU, 0x2c05d20be311fcb6U,
  0xf5f6fdf71f1326f1U, 0xe9f4a9f61504f5d9U, 0xf306ee0fe1f3d306U, 0x28e9c0dee80031c0U,
  0x3f700fbeb1630f7U, 0xe9e2ce11e5eaedebU, 0xe40fce1b0de21e36U, 0x102bc908ddf616e2U,
  0xec1b560d533b00fbU, 0x3c35d92c47eaebfbU, 0xed402a3411da2a08U, 0xda00f72e0c103e36U,
  0xf4f349237f6d00f9U, 0x681ecf1f7d19f9e3U, 0xf207ea0003de3e16U, 0xf707180a271a3835U,
  0xe5d8200023370b21U, 0x491adc2a2519f4e5U, 0xef24e43f12ac1c30U, 0xfcd6100efb000836U,
  0xf53090b0e046533U, 0xfacc9fc4312b0abU, 0xe23bd31b53fbfa04U, 0x406ccc37e6c5f3f4U,
  0xfa18fa0fe31c112bU, 0x19e7f3bd0600dbe7U, 0xe640a0206815ef0bU, 0x1b5a152c05f4e1f3U,
  0xdf199e20dcdcc304U, 0xeee6008cc5bc0031U, 0xef1993f00811dee8U, 0xf8271a4d18b898eaU,
  0xe9361af73219fb0bU, 0x19d80c2736e1aeb9U, 0xbe4ef118210cf5fcU, 0xd650f00add61517U,
  0xf50e1903cdfa0b1cU, 0x1c14000609f433U, 0xf403c91d0c2a0509U, 0x2d41321d00f60fdeU,
  0x1804c716b6a70321U, 0xb814b7c3c6f8246dU, 0x12d5bf02ed1f0ce3U, 0xe8def63354e0d4caU,
  0xe7ec1f131ed4d1c6U, 0x3f4693723e7e8f7U, 0x6e9390de60a08efU, 0xdfb47dbe74def06U,
  0x8b0fe0f5eb06a4U, 0x241c335a07521644U, 0x8d16617890525efU, 0xe2a932d03c5f34cbU,
  0xef92dea5dcdcf4a5U, 0xe5efc220f93d237fU, 0x15ac47ded0f71abfU, 0xddbaf2ca4af834adU,
  0xf00f48ea392589dfU, 0x16443fd733ca3004U, 0xdbfc00c9e304f634U, 0xbd06fcb6e3e52e39U,
  0xef131afb361f81fcU, 0x26450e190bca40e2U, 0xf6e5fdcadf32dd31U, 0xece410f20400112bU,
  0x150d16fb09f6b331U, 0x3453e70305df33efU, 0xa03d7163a0d38U, 0xfaf00000e209e712U,
  0xd32515f82b05d7f1U, 0xe1140ba0014271aU, 0x7e9e6d5fa15d641U, 0x9eefe4e71bab182fU,
  0xf3df00ed1108c800U, 0x900ee150726f9U, 0x2deb08f5d616062aU, 0xdcd7f9fd28fc1228U,
  0x280400fc00f3f117U, 0x18f10b173b3b0eU, 0x27e9310ae8323520U, 0xfafdf8ea2819100eU,
  0xa1d32cf519171ee3U, 0x1ef6079300eefa2aU, 0x29b1a6bed51ec936U, 0xcccfb7dd4bd007fbU,
  0xa893f4c70c1f12b8U, 0x4e7eaef00dc002cU, 0x3493e8a9bcf3c418U, 0xd8a5c8ca51001608U,
  0xe0b3c7e5d1f714c5U, 0xd8e3cbede1090923U, 0x308a00be9e07df09U, 0x5b7c99b4c0000bdU,
  0xc4c8f8cb1c15cdaaU, 0xfc00e524d61d21U, 0xfdd4fcf5e8e30aU, 0x38bed79ce4c50ce2U,
  0x8ad10ddf2a20c4aaU, 0x280700f01591181dU, 0xeff0e39109229f0dU, 0xe1a8f4d600caf72dU,
  0x81be1ae42739d5b6U, 0x1518f0fd279e0c1bU, 0xfedfec8ef00cae22U, 0xaae18c4f8e4274aU,
  0xe0004f40f13f0dcU, 0x1a04060e202009edU, 0x619002400022a0bU, 0x27dfc6e1e6dc14f8U,
  0xc9f923d61116e0c8U, 0x1506f5052018f4edU, 0x6ecf11116f426U, 0xe9bfe4e613a2f613U,
  0xade218fd0f12b8d5U, 0xf804f63ce6eef2U, 0xf813fada0808ee18U, 0xe2e3f7caf5db1529U,
  0x2c27f409fa002900U, 0x400f909174708d9U, 0xf6312b2bfe0034faU, 0x2222d01d0c240efdU,
  0x1af207fae12cf7U, 0x70aee021934f1cfU, 0xf723171a050e2100U, 0x1015fa074307e213U,
  0x120ff01f0b081627U, 0x30bea1a112cf7ddU, 0x43e0d1615121f09U, 0xf70e16f31307e723U,
  0xa72ddef7061a43d6U, 0x833b5e5f0e3fd36U, 0x19c0dd29e9e1c8ddU, 0xdd92f81ac9f5041cU,
  0xc305f310e900122bU, 0x1731e63ce5c6f428U, 0xed5cb19f8dfcff6U, 0xe1b11352df2a0519U,
  0xcde9e506f7fb25d3U, 0x17000544ceacf7fdU, 0xfce0323bf2d71012U, 0xdc004303080515U,
  0xb7e200eb0c0b1f13U, 0xfc21a8efc4c6f10aU, 0x1ffc061bd409c1e6U, 0x6c2c529e3b8ec00U,
  0x9ddce712070b00eaU, 0x2025d4f900baf123U, 0x1200f200eebaeeU, 0xd9edfa1de000fb10U,
  0xa3fae51eee03fbc0U, 0x41800fafd9200f7U, 0xf9e12209ecb4d4f5U, 0xecd4333bfc570622U,
  0x81fbf9ea15f31cfcU, 0xe75e8800cdb30012U, 0x12231832f8e9afe3U, 0xf30ae81df6c4f620U,
  0x9b1bd80c2d2b20ceU, 0x13509932e5c1f809U, 0xf716252f13d9c703U, 0xe40f0d08eecffa1cU,
  0xb63ac5120d1527f7U, 0xe0eb6ede29ef3fcU, 0xf6061328e9c90cd3U, 0xde02a2bf80ddb1cU,
  0xc111ee05f5fad90cU, 0x5f9f7ddfad8f8f0U, 0xfaf6d1812c18c70fU, 0xd100faf938bfe609U,
  0xe815e908f80e0337U, 0xfaf7e3f8fae9f1fbU, 0x1a12e5f71608e0ffU, 0x629f50d11edf71cU,
  0x1a1afd04f8fe2f24U, 0xec03e807060af7fbU, 0x2414004e03ef27f4U, 0x1825e733e70f06fcU,
  0xb0da0ed80807a1dcU, 0x80404ee14e5eaefU, 0xea0dddabf4fce805U, 0xabc8fadd0cc11004U,
  0xf0110ef2100ff907U, 0xa06fc0002ec00f7U, 0xd007fbd51229d205U, 0xde050012fe201205U,
  0x1c23160013105c1fU, 0x8050126110b25f5U, 0xe30816230405f509U, 0x221bf22ee9271affU,
  0xd1c809de0afbbbc9U, 0xfc142d200b14eff0U, 0xda21edffcc0921f8U, 0xabd607dd0af0000dU,
  0xe7fc00e4040becdbU, 0x906fd2af20bed00U, 0xd0070de1040ef9feU, 0xe0dc0ee1e4080af9U,
  0x150dfb020b062300U, 0x8f6f615f721fe03U, 0xeeeb180a12fb10f8U, 0x2ffe0009d518feecU,
  0x1703f8030713251bU, 0x3010001a00311c23U, 0x24e41a07e7fb100dU, 0x160de51ff2032721U,
  0xf40aa5c9d1e4eaf9U, 0xe900fdeedfec1507U, 0xdee4cef6f0fce808U, 0x19de0bf1f4d2ecU,
  0x483adb8ad04e3U, 0x97e9bdc5b7d7e816U, 0xc0d3db00e4f0eee5U, 0x1011d411f7e386dbU,
  0x2a083a060f150512U, 0x171a101a042c0a0eU, 0x390d221704201beeU, 0xd03f122f6050f1eU,
  0xea0ae6e8e3e900e0U, 0xb0208f2eb0b16U, 0x1100fbf807e6f8U, 0xededf00ef700f4dfU,
  0x30a81beaec00df3U, 0x8ffac8f3cec6e606U, 0xe8e5bafbd8f5d6e1U, 0xef2de1b00f2b2d7U,
  0xa002dfc21fa2c13U, 0x618070f0b3900f9U, 0x25130a29fe103ce2U, 0x190a100ff506f4ebU,
  0xea0e1c3610f01b15U, 0x29190b1003fb0ffcU, 0x132c1300121bfdU, 0x29062400ee0a10f0U,
  0xf3f7d01addef0d15U, 0xf8090f08e8cf07feU, 0x3e517fa0bd7f1fbU, 0x21050000eb00fee0U,
  0xdf0400dade20d2d6U, 0xfe05d1fedfceb7f7U, 0x8135e4052f1f8ce0U, 0xf00cc0cc99fdf3feU,
  0x5fdef00c5e607d8U, 0xf4ddd1edcaceb9beU, 0xa609de35211d9c1bU, 0x374eb1d2d706caefU,
  0xefddedcdf4eaf2d3U, 0xfd09d1310713c8c9U, 0xc821040900ecb408U, 0x36e4ccd2df33e4f7U,
  0x102efa35dd06e807U, 0xf000c6f0fed6ea17U, 0xdd4e0ee43414b2ddU, 0xe9471ae1bceae810U,
  0x572af72cbff01e29U, 0xf5d0e2130006170bU, 0xfb0ff334361a1411U, 0x5632eb2f3c38cbf0U,
  0xefd416dc0bb405eeU, 0xb061b7f130c00faU, 0xdbf42f07bcdef9f1U, 0xb3aef2250806f8U,
  0xd3421dec0024a4e2U, 0x3b18d91729d9f808U, 0x27d8d705199e10U, 0xe1f1641ccfdc2e2dU,
  0x214ede4b4e616f2U, 0xebc8f4bfe4ec370eU, 0x109cfaefae03cc13U, 0x5811193c66e5891bU,
  0x4c928c51b9502c9U, 0xa294b310b092aedU, 0xedc100deb2d5c709U, 0x15c5dbd0471ae5eeU,
  0xf4e4f8b6ceabe317U, 0xd5f12dddf8c60904U, 0xee07d3e7dae4e8dbU, 0xda0ffdf525f79906U,
  0x1a16fb1e08d3c018U, 0xf80d2cec18d119f7U, 0xe3310f0b320a07f5U, 0x10062208182ad91cU,
  0x3228f70de4e3c9e8U, 0xef10071bffe214ddU, 0xedfaf623fbdc1cf9U, 0xbf60b09e21adbf1U,
  0xe407e8b8e198fa17U, 0xf30800f80fed0717U, 0xf1fb6fb0d05f8c6U, 0xb107f4fe2de081efU,
  0xa17dce6d4c00e0aU, 0xf0f8f3e604f31b18U, 0xf60428003a17f5dcU, 0xf316fe00ed0e991eU,
  0x48151debe6dc1017U, 0xd3f300ecde071307U, 0xf1052af8eb32f9U, 0xbf4e0f5cc39b304U,
  0xf50ee5cbdaa00526U, 0xf1090f16151619U, 0x130dbddf2e3afacaU, 0xc41614fa36c9a300U,
  0xffcf6efd2ecf60eU, 0xf5f4eb12eafb1219U, 0x1607c8f53216f7d7U, 0xf31000ec00e3951bU,
  0x36d500ded6be0c18U, 0xfdee1efbd6210004U, 0x211fe615070011e3U, 0x252dcdf6fa06a600U,
  0xe2f7cf1feff54033U, 0x4c3a4df121c3323U, 0x52cd40033af04d0U, 0xc623a21ec4c80de5U,
  0xe300fc04f60318e2U, 0xcc5bc0617072f1eU, 0xf904f60b13a80adeU, 0xd4fad800def510f5U,
  0xdbc51d0d00061ae2U, 0xefc9c900281e3123U, 0x13103627f2a923ccU, 0xe0f9c8f9de0011cfU,
  0x9dece4220af81f23U, 0x13ddb2f3070bd9f4U, 0xdd1fe81326c61007U, 0xf715d80b00e600f6U,
  0x9ff103f9ecea09fcU, 0xf0cf00ec0cdce7U, 0xd919ee19f0b910ebU, 0xf7f620000b03f600U,
  0xc1d51900201618f9U, 0x19f6d9080c1ff0f5U, 0xe214222214a30ffcU, 0xe412e2fd001112eeU,
  0xa1ddf303eaf10af8U, 0xedda707f10aabf1U, 0xc11b09f811b9de0eU, 0xf10adcf72fd507d5U,
  0xcad2e902e50505e6U, 0xcfccafcec13bfe6U, 0xd40bf8f00a9cefeaU, 0xe9f9fbf336f220ecU,
  0xb8cafcd7f81cfb04U, 0xceadbecf606b9d5U, 0xca3713000c81f519U, 0x50aadfd28002dd1U,
  0xf286e291b0e5f981U, 0xbb00dc2b9f15e022U, 0xecd33520b0a631deU, 0x4c9605d3e81c05beU,
  0xf5c0ccc4c3c123f6U, 0xf110c4b8a2e4db16U, 0xe609c205ccd7f515U, 0x13e9d2f4f4b4a3d1U,
  0xe71adf230c0a1f1aU, 0xf903f88f2bc9fae7U, 0x28449bf039f9021eU, 0x211eb811f8b5d83fU,
  0x2b9ce2b8cbea0ac3U, 0xef03ea3bd60fef06U, 0x5c84113b7da03ecU, 0x33be0fe4003208c8U,
  0x1edcfafce2ce0a00U, 0xf5f0d4cac6f5ebecU, 0xf623e908ebf70000U, 0x2517db1000d1cbf1U,
  0xe2c2e1d09102130U, 0x211ff7f246efe8d4U, 0x3728b3032931ef15U, 0x1c2bea3b06e8294dU,
  0x4d8f3f2e613f9afU, 0xefd3efe82b161eU, 0x9bd1e04db1ce514U, 0x31dde009031006cdU,
  0x11f71716f2ef000fU, 0x8f5c6f9d9f713e7U, 0x29ee15021231db0fU, 0xc2cc23b05eae600U,
  0x41524f825fb112aU, 0x211105003deb00edU, 0x1adeda04f718f107U, 0x1128fb270eeeee46U,
  0xf00041f0c090004U, 0x170b0d08e50b0b09U, 0xaf51d07210b0e11U, 0xfc0f0d07fc04e8f1U,
  0x41074a3b110eU, 0x31040c10391bfb0eU, 0x1106fc1630110013U, 0x141f08e5fa130527U,
  0xf1e32106350c0c1eU, 0x270ee52f2c380529U, 0x2104f62b0047231bU, 0xd222414eb1d1e15U,
  0xd9e9d7afb2fae8U, 0xe8111500a80afb11U, 0xebcd0a12d7c61cdaU, 0xecae22130307cefdU,
  0x30a22e90abff123U, 0xcf8f1fbf500U, 0xd2fa0f0a08def5e1U, 0xce41919fc24b40dU,
  0x3715f80006da000dU, 0xf417f60bf9001304U, 0xd40cfc061ffbU, 0x1d0b0c23f70ad50aU,
  0xe9cbd1ccb2eb00c5U, 0xe3f70013aa31dfe9U, 0xe9ea3623c2e62ac9U, 0xf5a31fe206d9b8e5U,
  0xe5f2c6af9a8108b0U, 0x9cf0f2248313deeaU, 0xdde4f70090b2f4a7U, 0xf7a510fc21f2a2d6U,
  0x1a00e0fbb1ac1ae2U, 0x9704ce0a8e28060eU, 0x4d61a31c69c10d7U, 0x12c5051a272282e6U,
  0xfef0daf2e6d12021U, 0x13b810f6f3ff9bb0U, 0xd806f1cf1ee8dedcU, 0x331b20d11700de8aU,
  0xe9f3eee612ce1cf8U, 0x1105130e0116d4e0U, 0xd00506e3fafce0e4U, 0x17f50e00f007e7acU,
  0x1f11381119f51ef7U, 0x264d4308273e2f29U, 0xe191bfc0949fd07U, 0x1ed61e2fd92c0517U,
  0xfceddde6fdeeedf9U, 0xacd0f0910d99fb3U, 0xbbf900f4fdd5f4d7U, 0xa0e1ee11100ed81U,
  0xe0e3ebf90ce000e3U, 0xfcf6ed08f9d8e3e3U, 0xd7020deafcd0e9f0U, 0xbe90df30312efaeU,
  0xfa13f30212fd05fdU, 0x1c48210008362a35U, 0x280903f40e33fb00U, 0xf7eaec32d7fcf80aU,
  0x19e5cef5fbe203efU, 0xe4c60ada0c00bcb3U, 0xbce90511f2e2e7efU, 0x2a3303011c02d9a6U,
  0x1100f2080cdd09edU, 0x6fa00eb0cf2e9e5U, 0xe5f800f3150ef40bU, 0x1e0c091911f4eae4U,
  0xe00fb171afafd18U, 0x352500f80d382d40U, 0x270f00ea213e07f8U, 0xf300e963e5fa0248U,
  0x1815f3da03f22300U, 0x911bcc9ddee0af5U, 0xecd4ec1afbcff018U, 0x3f37f80b0322f7dcU,
  0x230d11f01be11500U, 0xf00f1500f904e1U, 0xfddf0f33e9dafb00U, 0x2a180910001c060bU,
  0xa151fe62e1a0efeU, 0x13f20c1226eff8c4U, 0xe9fd0e0d03efd616U, 0x2c040825da002b0fU,
  0xf3fce0c2e80d24d2U, 0x1b4598d3eeabf01fU, 0xfacec8e403eae10eU, 0x14e6d61530e702caU,
  0xe5e90bef0dfef1e0U, 0xfe2c0200fcbef813U, 0xfdd4f3f1edd2e518U, 0xd0fb0527f7fa0cU,
  0xe2f02bf30823e2e6U, 0xfd0c17111bbbd6e5U, 0xe8fc0de81be1c1feU, 0xf9ca0efaf4f6101cU,
  0xf007d9c1dd0750dbU, 0xfa1d81dbe10ee124U, 0xfcbcdc00e6f52505U, 0x11fac62a3cf3e8e3U,
  0xf90403eb1a0021ecU, 0xf60ccef5f802e50bU, 0xfdcdd103f6cc2614U, 0xfdeedd0f3af3ec14U,
  0xfaf81306242a10fdU, 0x12e400ee20f2dff8U, 0xf8f9ed1323d4f229U, 0x9f5ecfaf9ea0b2eU,
  0xc4bfc393941ee1aU, 0x200ff9d740b5b8bbU, 0xf724fcce210fc628U, 0xf2e304f4edbd3704U,
  0x2f39fb38ef21f24fU, 0x17fb169ee6b0e500U, 0xec1aeced5219fb3aU, 0x3313083cebf3f800U,
  0x5900e51d0607ee00U, 0xd42af3dffac1e1d2U, 0xf0f212f8edbe0012U, 0x71dbd805231900c5U,
  0xe1f51e1a0b13f0e0U, 0xf03bdeb24e3cfeaU, 0xe0000df12c0cac12U, 0xdc00d117c5a81605U,
  0xedd0d5edfa0a0000U, 0x250fefd800dcf807U, 0xe5f9e5f11acfe21eU, 0xd0af02104c20005U,
  0xeec7e2ddf60e08e6U, 0xe034dfe500c800e6U, 0xc7da00fcf181e60fU, 0x33ebafe53c13f0e7U,
  0xeccb1ac31d352800U, 0xef9e00d2e6b815U, 0xe3f0eb0000df9b23U, 0x3febb732c5f12600U,
  0xf9c6e9de044b24b7U, 0xb18d7e1e0e2e211U, 0xd6e0ea00e9abbef5U, 0x11eded361b262c15U,
  0x2eeee0b6edfc55c7U, 0xda21d5e2eacd00f2U, 0xcfd40507f49ed00eU, 0x560cbf20451816cfU,
  0xd823081913f44a31U, 0x1108180614d2a5b3U, 0xf42214df350b00e0U, 0x70b3f58f6100012U,
  0xe415f627f3f94b00U, 0xd1622e8c2aeb6U, 0xbeea19d017e8d2e0U, 0xf7f6151fdb23ee06U,
  0x8000eefe0e804f1U, 0xf9391ff9cc94a6bfU, 0xbc1520f90de20cf4U, 0xefae117dce5ddf1U,
  0xc7f51ce932030bf4U, 0x162f270021d4c1c0U, 0xf80cf2eae6f5c8edU, 0xf3d33a11d8cc191fU,
  0xd9edfada200f001bU, 0x111ff6f6f0d796beU, 0xdb0b07f60fefe9f9U, 0x13fb2028c51003e9U,
  0xf6f9093cf21a36ebU, 0xec19f926e3d9c3b2U, 0xc5f5ea22f9ca2216U, 0x130f1f3b1408f800U,
  0xdfe22dd40ccee4efU, 0xfa2208440abfebcbU, 0x100a1f09d1edc9b4U, 0xdcc06507c32ae134U,
  0x900051aed3f0fU, 0x2706fa06cddfd0d3U, 0xfd0318350f06f2eaU, 0x261b1731e01bcde8U,
  0x1f22e3fee9fd7f00U, 0xf438e7fadbe5efc1U, 0x7f7e63211ef0004U, 0x2eeef7503216e00bU,
  0xd3c039cbf21ef41bU, 0x11d776f34a1060c3U, 0xa12ea1c290000fdU, 0xf659812da9e616d8U,
  0xd6c229d81506f904U, 0x52e358ef3b1008f2U, 0xde0dfb131df90510U, 0x26399923d0f52505U,
  0xd9acb4e6d01e00e8U, 0xdde725dc0000d314U, 0x970bda440bfbee25U, 0x630934bf4dd1341U,
  0xc8cb21d8f504e3eeU, 0xdb572e390556caU, 0x29fd253c21c20de2U, 0x133bb834c71b1ab8U,
  0xc9eafdf004ee0010U, 0x1dd81dfbf61410f3U, 0xf1200d2d00f2fc06U, 0x2217b834dee90c00U,
  0xc9e8bcd0f518f4cdU, 0xe4e4f5c0dee9de09U, 0xc51bee13e9fcdb1aU, 0xf8822ef7cbfd2eU,
  0xf7d6e4cbcef418e4U, 0xa13460ef4e830d8U, 0xf2e11938dcc210fcU, 0xa13941b0b07ddd4U,
  0xe0c6c6cafdf20d13U, 0x1a0f00f5e8000bfbU, 0xfc08d91ed0f5090bU, 0xfd25bf490ecbe619U,
  0xdab4bacfccefe7e2U, 0xd22506c4db00d807U, 0xdc14b649ca24f719U, 0xee596423fbbd448U,
  0xf6112307ef25eff4U, 0xe0e20f2e716261dU, 0xb62a14f915160608U, 0xed4f00f10a0a05f9U,
  0xf00bfeef12f7e300U, 0x1a0f190711f935f8U, 0xb40df2ef0c0e0b1bU, 0xfb10fc005919fce6U,
  0xfdf9f7f1140fff2dU, 0x1420053127192111U, 0xc7f60edb22080334U, 0xfd0cf9dd480718faU,
  0xe7f9f6f1dc0a08fbU, 0xfd2213d9001ce500U, 0xd0112ee118e028f9U, 0x171cf6e62b10fcdfU,
  0xec07ed0400f400faU, 0xf213e5eefafaedf3U, 0xc600e8ddfbd51e0dU, 0xeff3e37ff5f0e0U,
  0xf7ffe41904f31626U, 0xf9e7e4121bf000f8U, 0xdcfc0ac8f6ce1a2bU, 0xff2f3d95cf20400U,
  0xcf9effbf50d0efcU, 0xff1802e3f604c4e9U, 0xd82227e121dc37edU, 0xd13e8c00b03f7cdU,
  0x6eef60006000419U, 0xe818d3f3f9f4d7e0U, 0xc8180fcbefca190bU, 0x1303ccd03d0dfad5U,
  0xfcd0dd0b2613fc48U, 0xdff3ca0d17e6efe5U, 0xec2e07e100ae2b15U, 0x29efe1e245001ee1U,
  0x2f60d10edaed0f1eU, 0x4a6e0c20afa1900U, 0x14e3ca850656c8daU, 0xde2e33bcf1e3fccdU,
  0x1f1ffcd6d3c2d4e8U, 0xf0bcdfc00d0b0cfaU, 0x21c0d789d419e2bcU, 0xe8d7d4e3db0fe8c5U,
  0x2c39fbdffccf3e07U, 0xd0ac3b00fa4529faU, 0x20ba079dbd2718aeU, 0xbe7a0e6cf1ceeeeU,
  0xf9e500cd001389f8U, 0xeae4070a210015U, 0xd90fcbd42b060814U, 0x9f1022b7ddacfbcbU,
  0xfbef00b0f21281d0U, 0x8ebfdec3100e007U, 0xbc26d0f400ec1a00U, 0x8cf1e6bad4d6229aU,
  0xfd21c30d0da7d7U, 0x19cc33f61e1e0c06U, 0xce1600fc00ef09d0U, 0xd00cb9c3cdf513c4U,
  0xda200416f99a2aU, 0x160c0000260f10e6U, 0xf1080000110508f1U, 0xd229174be9211505U,
  0x13de08fefd16df06U, 0x1414ee372cf200e9U, 0xcc0afa2022bb2ee8U, 0xd906f92be22c231bU,
  0x8de06d608fbc516U, 0x22ef0f4a27e5fbeaU, 0xc2fc0f461be224f0U, 0xd615001bd617f218U,
  0xfffff3d2000003b8U, 0x2ffffff7ddU, 0xa2fffffed4dU, 0xffffe2eafffff918U,
  0xffffe87800000230U, 0xfffff581fffff0d9U, 0xffffd495fffffbe9U, 0xfffffa4cfffffbf3U,
  0xfffff200ffffed78U, 0xfffffa4bfffff3b6U, 0xfffff515ffffef94U, 0x579000002ceU,
  0xfffff838ffffea7dU, 0x230fffffa63U, 0x44bfffff35fU, 0xfffff754fffffdd8U,
  0xa0fffff5f9U, 0xfffffbd6000002a8U, 0xfffff702fffffe90U, 0xffffe4a8fffff869U,
  0xfffff0ed00000029U, 0xfffff3a0fffff9a0U, 0xffffeed900000a80U, 0x3f1fffff816U,
  0xfffff61cfffffe97U, 0xfffff576fffff895U, 0xffffe6f7ffffe760U, 0xfffffdb0fffffc5bU,
  0xfffffddeffffef69U, 0xfffffebc000004b1U, 0xffffeedefffff8ceU, 0xfffff5b700000321U,
  0x15e9fe64e5fb1c00U, 0xf0fee9e4f7f4eb00U, 0x1717e6d6f2ef2cefU, 0x21003d31e10cecceU,
  0xcef3f117002900ffU, 0xe608d4541cedd0f7U, 0xf8180ff4ebf32407U, 0xdfeb180b37f2f031U,
  0x11f50043f9d9e915U, 0x21f5f4e20311f40cU, 0xd280405d60c15e7U, 0x2a123126d1f8f7e3U,
  0xcfeaf80800180312U, 0xd918d61635ddddfaU, 0xf017f615ecf3f919U, 0xe302effe44facb11U,
  0xbc3061acff1101fU, 0x22e3f1dd1b040be9U, 0x27250c17e61efb05U, 0x2d084f13e413f6e5U,
  0xefebf929e57fecedU, 0xd548d1022208daf9U, 0xf7df20eee0fa00f1U, 0xefe8fc34410fdb08U,
  0x9d5f424f7f1ed09U, 0xdb04f0d503fdf4edU, 0xe022e8f913fa03cfU, 0x24051933e5faefeeU,
  0xe3b6f2eef511060fU, 0xee00df2d0beed80dU, 0xe21203e7e7d62cebU, 0xdaec0fe6250bf510U,
  0x1ce3f42912ceea11U, 0xeb10fde8260609f0U, 0xef0b0ff5def81af3U, 0x1f000611d1eb0ee5U,
  0xdbd0eff1f51e001dU, 0xe20de81a07e5ea14U, 0xda1805eef5e9fbfbU, 0xeff6000023d500U,
  0x18bf0ef1e1150720U, 0xfae8fee720e000d4U, 0x2c1c1ed5f4ef0fe8U, 0x2d07f7ecd40a0be6U,
  0xeefa0007f428daf6U, 0xf435de0e1414ea10U, 0xf2e41ce405f1f2f1U, 0xf4e5ea3604faef18U,
  0x7be18e00318ed0eU, 0xf0f9e6ced308dfe7U, 0xc42ef5f80be6f6ddU, 0x6dbf10ed1efcd03U,
  0xfdbdf9e11139fbf6U, 0xd904fafedbf2e500U, 0xfa0a160409d21bdbU, 0x11311d4002df12bU,
  0xf4cef5e6f9f0e80eU, 0xe1f5ee04ec0006eeU, 0xed061ae308ec0306U, 0x16dfed12d9f8f8f3U,
  0x4d8eee5001307f5U, 0xd636fd21f0dcdc28U, 0xf4fa2b0004e20be9U, 0x21f700f61810e50eU,
  0xf9b5f7e5ee050d1bU, 0xd0daf1f2c1d6f8eaU, 0x17042ddf28e228faU, 0x22eef1dad200e4ecU,
  0xfcf3d9e9f90fdeU, 0xe537f218e5e3d72cU, 0x14cc3c0e00d1U, 0x1100f8371ff7f911U,
  0x212b34cd30352e0fU, 0xf9fc3b7fdf163e05U, 0xcfdadf00f303f6U, 0x2b14f4b71eebf711U,
  0xf6ecbdd042ec00f5U, 0xdd14eaf5ee07e226U, 0xf74a082edb001c36U, 0x601518deef2cbde1U,
  0x25fd36052f40ee16U, 0x9f32f30f1eb4ce1U, 0x11c000fd0df216U, 0x3a00e6d916f1ce36U,
  0x15a8dc1a142b00U, 0xe4d2f21d1300f70cU, 0xf837fa16e0e63812U, 0x461004f7de3ec4f8U,
  0x16f8f807335acde8U, 0x2ae92628dac02be6U, 0xf14c4f5f40c032bU, 0x1fcccdde2500d80bU,
  0xe518ccc026e8fc00U, 0xd6e7f71e033a1200U, 0xfa28f511bef43c20U, 0x3f1718cfe12919ceU,
  0x371ee2f719140919U, 0xc5d416fbe4000300U, 0xead19da15071517U, 0xf2c5eeec0ee62c1dU,
  0xf1dcff10ecc1ff2U, 0xf7ddeceee52af616U, 0xd3fa0edbd8df1302U, 0x28dbeff9f8f2caefU,
  0xb24edde4819f8f5U, 0xd8c30d12f0dc19eaU, 0xcb90be2040af707U, 0xf9e7efde15d60036U,
  0x22eec7ecf4f220d9U, 0xf2d20523e612cb0dU, 0xd8130edaf9e509e7U, 0x2dddf1e1e611dc16U,
  0xe819f4f93834f200U, 0xcef714ccf90bd9U, 0x15e60b07bbe7ec21U, 0xead5f1090ee0f801U,
  0x44f7d4ea22e00fdbU, 0xe9f4fdedec0cdaf1U, 0xdbfb17e2f1db06f8U, 0x23f415d2d8182300U,
  0xff13c3e7312cd1dbU, 0xccd9f73753e1fcd0U, 0x11d83ec7f6d7e4ecU, 0xd6edc8f6e0db4de3U,
  0xaec09e11bb43c44U, 0xc0bf1cc327f20ff0U, 0xbbe0c5cbd7d6defaU, 0x41c0e519f5fbbed2U,
  0xf718b9c5380000ceU, 0xdeeedded11e91ee4U, 0x1daf1bcaf2f8de15U, 0xcd19ddd9f1e16c07U,
  0x7f9f4ca18ca3114U, 0xd7c700eef8c9fcd1U, 0xc1e0dbe6db0000f6U, 0x2cbddd00cdedc9e1U,
  0xddf0bad52d25f300U, 0xdeecd0a2031fcd2U, 0x30f023d6afdef545U, 0xecf8e9e4c9b44cf5U,
  0x3e1af4f422a92d07U, 0xd7e100d8efc9eee8U, 0xe0e2f9e1e52f38d5U, 0x33d4e1d5d40ff0d4U,
  0xcd5d1dfb0bf74eefU, 0x33f2e27ff71d0dd4U, 0xd0257114b3c4e636U, 0xde11c691001cf4c2U,
  0x2be7e85e491f0ceaU, 0xf1f7f09dd1f1e721U, 0x292a0c38da1eeeebU, 0x1f3513130cc33dddU,
  0xe23e09f4e60032eaU, 0x29060c1dee10fa24U, 0xe5f427e0fddbe1d4U, 0x17ebbfec1110efU,
  0xf4f1e41e03e3080cU, 0xfdf0befaef073cU, 0x10fef544071507e0U, 0x1a30f80031b40f15U,
  0xdf0e1854d9f044d8U, 0x2c03e920d410e95cU, 0xef27dedbf214e2e3U, 0xfef62cec12091edaU,
  0x7d2d616f111183fU, 0xf41ed7be00f94e06U, 0xe81500fc1c0ef2ebU, 0x628f20004b2e3ddU,
  0xe04026c9fbe50dc4U, 0x1712ed64f52fd7ebU, 0xc6e52d12c2d9e90bU, 0xc10c9d22c13fac3U,
  0xfdeacc2313160025U, 0xdfe0f7a2f0f6f431U, 0xd90d0504fb0d00ceU, 0x291b06f400c1ecfeU,
  0xd912001fdbe306deU, 0x1a060b2508d404U, 0xecdd01f110e308e6U, 0x151400e2ed130eefU,
  0xf3f1d7180a07ef36U, 0xf5d2eded13001c14U, 0xe6f11000191911e8U, 0x1f1dd70c09bc0012U,
  0x6d22e62d0d80cccU, 0x1327ee000d06a720U, 0xf507c90625f3dffdU, 0x1311e60a0ff1deU,
  0xfad6000700fa1bU, 0xf2dc19111732bbU, 0x2b18ce18f9fa00U, 0x240708dcc2f3e6U,
  0xc8261523f6d31db4U, 0x602ee6410e25f208U, 0xcbc8231dfee4d2edU, 0xcfcbbf0161624afU,
  0xb0ddf217f213ee3eU, 0xd4e1cbdbed1cf119U, 0xd1edcd122637e5bbU, 0x3618074d0b95e300U,
  0xcf10022cedd20cdaU, 0x1949dd23fa09cfe0U, 0xfc2102051bef0015U, 0x2bf500e6e7080ce5U,
  0xc626ed051511da30U, 0xf6e71cda1b27f7U, 0x12ec1dde135f2ad5U, 0x132ee33be7aa2011U,
  0xed00253dfcda1100U, 0x1f14f21d351fbc0dU, 0xf11fe0d83ae20209U, 0x23e509c0094d0800U,
  0xa827e21307230f00U, 0x214ef4df81643c1U, 0x1cf815ef07330cebU, 0x15441709e2c000fdU,
  0x2d64e700eee6628fU, 0x4519eb24f1d01fbaU, 0x42268f8f7ef4410U, 0xc5f7b2cb56ec7fbfU,
  0x1a1b1d2ed7f8d633U, 0xde3dfd9aa53ea00U, 0xdade00d7cbf306d1U, 0x63a60011b1cf20d1U,
  0x2025e11c05e73fd3U, 0x3200020000e200ddU, 0x3d084ef5e3f653edU, 0xe9e7b9c6470468d5U,
  0x2217121eb1dad0f4U, 0xe30000e89248c227U, 0x5061419f4e825ccU, 0x39cacbcad7b612f4U,
  0x1130f104155c73deU, 0x11fbd4ca06f11600U, 0x3d234200d20e48f3U, 0xe000d8cb693a3f05U,
  0x583736e0efedd7U, 0x1e26f8d33eca2eU, 0x4e111f2f1eebed06U, 0x8fae5f900d6360eU,
  0x36fb11e1141400d9U, 0x1426f100d7c428ecU, 0x40432eefae93cbdU, 0xf5e0e41100e219e2U,
  0xfdda0004d8efd22bU, 0x8ccdef4e73ae5daU, 0xd8fafbfbdb1a0fc8U, 0x41cde8e8e8e5d1cdU,
  0x23cd0df11f1b0de9U, 0xf013e9f2e2dd0b03U, 0xec100be1f7e635e1U, 0xce4eff9ec080dd9U,
  0x6dd0efabee0e411U, 0xebd11114adf7c307U, 0xc0dd041fc10433d1U, 0x2fdaeae8edccd0fcU,
  0x1c1c14b8100016f9U, 0xc5eaef070eec1d06U, 0x16390cd9e11224e0U, 0x8f7e5001eedf706U,
  0x4224de3dfd104deU, 0x10cb1730e10ddb16U, 0x12002513fb0c0be8U, 0xd600f300c50c1cU,
  0x290e34d204f017dfU, 0x1d42fd00b8d40628U, 0x2de60bd6d7bffeaeU, 0x11fe222bcfd2dceaU,
  0xe81fe2ded609f036U, 0x2408e611d222f9caU, 0xedf4f037ef43fec3U, 0x35e6ddf64a17f9e4U,
  0x1e1524f1132200f5U, 0xf6ef1807e2eaf11dU, 0x1c1c18d7dbe00dd0U, 0x42fcfd39f5d4e800U,
  0x80ef7d0e80b3eU, 0x11dd1604b5c6d7d8U, 0xebf3fa29d6db00b9U, 0x11cafcdb339ee110U,
  0xbf02ecd00f8160dU, 0xf225e9000abd1b53U, 0x1b1408ccd0e562c2U, 0x27fb1d2807c2f60aU,
  0xd395300c4dc0b00U, 0x1aa100300fc00051U, 0x13130444cccbf1f0U, 0xcd512f346e41300U,
  0x16ed0ef0ebf50036U, 0xc10210e6f5e9e5c8U, 0x18c3f70825270300U, 0x14f4d3e03214f57fU,
  0x809f9ffdf16e515U, 0xe70d09200003bfU, 0x33f8130700fc4325U, 0xcbec0af4be06160cU,
  0x2100fb05eaf3002aU, 0xbcf80405f8e100c2U, 0xb2faee281d000cU, 0x28f40fe1151d021fU,
  0x321f0f8e827df21U, 0xe2fa090700fa09caU, 0x1c05092a00e1143dU, 0x9dd04f2ef00f600U,
  0x45f2e524dc2d1236U, 0xfa04f0f700e40ebbU, 0xe4bcf8151722e820U, 0x2c00e5ec0a22ed31U,
  0x3736fb040b1fc629U, 0xed0b40e401f003d2U, 0x3b00120413eb006fU, 0x32ba1102f1003e04U,
  0xef11fbf910bef126U, 0xd12306fc2ede26d1U, 0xcc7f300fa002efdU, 0xf71cd5d7fd0bf022U,
  0xf8f2ea0bea00eaf9U, 0xf813f80edd03dfU, 0xf2f500e2f80a25edU, 0xf008f600ed002827U,
  0xe72ef6fc00dcf000U, 0xd4290c1c10d330eaU, 0xf6c300f113ea2c0fU, 0xfe13f7edef210008U,
  0xdfaede9e9f5f007U, 0xe307f90dfbcce9e1U, 0xe307000802f00e18U, 0x5f6fcf91d3208U,
  0xdb00eb2f0000de1eU, 0xf80500df21fa29d4U, 0xabaeffa28fa001bU, 0x1711d8fd0b26effaU,
  0x1f1ef90f0000e20dU, 0xe3fe12e5faef1204U, 0x13fc1c11df1133U, 0x12e3f9e609053429U,
  0xe1170bea16e7f048U, 0xda34140032f40fe4U, 0xf0dfd613e62b28efU, 0x72000f81522e6d9U,
  0xfcf1d523f71300f6U, 0xd91d0a32ce1300U, 0x17161aea000631ddU, 0xecfce9e5d2ec1916U,
  0xd7210a0411eed607U, 0xd62f00061bfb32e3U, 0xdec9e40800f53f11U, 0xed14fbf3fc08f4d8U,
  0x3dddf13080be603U, 0xe5e5151516cddef1U, 0xe19eced001420ebU, 0x1a14eaf7f2e23af9U,
  0xda24df10dfcbe205U, 0xed050eed1bfc47ceU, 0xf3d6eef55b082300U, 0xea16d2e1ff1bf4dbU,
  0x604ea25f607cbfaU, 0xcd001afaefe3e017U, 0xf105e4ea001b11f4U, 0xde0500f4004040U,
  0x2ff1f26d0de20bffU, 0xe504fce83ae117f3U, 0x18c8f6fa00501845U, 0xd1c2d7c76a030008U,
  0x325feff0e2dedf19U, 0x8ddf700280ff01bU, 0xcd400571ae70259U, 0x39d7fa0dc9de48e2U,
  0x3f004361dde1cf3U, 0xe4e5fddf2b00080bU, 0xf1dd0000f7424225U, 0xd5c4d7c4323e1012U,
  0x7fdc19d1fa0925U, 0xdde5f9141225f600U, 0x20e5f21b15f3cf50U, 0x1ded240f13ec45d4U,
  0x26fcec0628d80e12U, 0xf407f92640f81a00U, 0xccc307f8eb2cf20cU, 0xfec6dddc2c2804dcU,
  0xff30f626d4dc0328U, 0xc6bd2afa00f8f707U, 0x2d0ae21b16efd040U, 0x9d3302bf8df29d6U,
  0xe12a2204ecd433d5U, 0xdc24e02f40e030f4U, 0xfe9f800f1003748U, 0xcfd1e6d33adb17ecU,
  0xf61fe40ce9eefaebU, 0xd1ee30f321ece406U, 0xd4fc1321fbe3ea2eU, 0xf605e5f8f1fc1b0eU,
  0xdf2618f3f2d200ffU, 0xfbe9e82f07f938f0U, 0xe4e60c00e30ff806U, 0xe6ddf1cef2040e08U,
  0xd429df15dcf120fdU, 0xd8f8150007e1fce3U, 0xd712e51700dfcc0cU, 0xfe25f000001127f8U,
  0xdbeefadf33d0e80dU, 0x8fcfb4d35e8391aU, 0xcce210d2eff509f1U, 0xdd50cdbe7fd36e1U,
  0xd329f600d8d5fb1aU, 0xbeda210014d0f6e3U, 0xee1c040dfa04e110U, 0x300ec1216e813f9U,
  0xeb0e321a15c514f4U, 0x1f30005443f62921U, 0x92409efdf110eU, 0xf2e5ebbb17e451d5U,
  0xe30cd40dc7191be8U, 0xcaede9334ae1e1dbU, 0xd8091819f1e9f806U, 0xc0ee2faf9eb20fdU,
  0xecf604f319e30010U, 0x19e51052121628U, 0x41027e3e70318f8U, 0x15d105b8c32441ddU,
  0xb80fd0eeb9f710f5U, 0xd5e1fc1d37e3e0e6U, 0xc20b070a00faeb07U, 0xe16cb07fa0d0efeU,
  0xdec9dffb23e24c0eU, 0xd73608375c141269U, 0xea313ed5e2f31ce2U, 0x47cc1cf5ed0b24c1U,
  0xb90fedd4e6e20c04U, 0xbccd1a227ecceae7U, 0xe4f60600fc00f20dU, 0x15f7ce3113eb20f9U,
  0x2805261cf62df80fU, 0x28e1ebe53f031fU, 0xf010e82f5c4a0a1cU, 0x27de1d0b3c3117e5U,
  0x201e19dae41f3df9U, 0xe4ee0e2f0c2d19fcU, 0xe9f6fafb1500ef1bU, 0xddcc2adb23f6f629U,
  0x2bfc2ff1090df93dU, 0xf90fe1d609370008U, 0xfcfcd3303742f41fU, 0x3ce0100e2c1df013U,
  0x190bfbcc0e231100U, 0xf3c900300e09f10dU, 0xf4f30e11f2f9fa19U, 0xddce15e61bfdea29U,
  0x1b060ce8f214074cU, 0xfff1e2eade22ef0dU, 0xfed7cc41412ef81eU, 0x19031d032e060b15U,
  0x1aecefd0f92624ecU, 0x18f1112dee2b1212U, 0xeddd16f9f607f310U, 0xdce3f9d503030603U,
  0x160b05f20be90b16U, 0x1a0007070010f1f3U, 0xf1fcf4165011f0f5U, 0x1600f4ea090722e8U,
  0x27ebebdcf30c2feeU, 0xe40004dd13efe200U, 0xdf04e9e802e7fd06U, 0xe3e500ee1800d311U,
  0x110c0ef008e31022U, 0xe8fbf503ef0eeb09U, 0xf413f21436ee0c0fU, 0x12f5f9ebf7f91100U,
  0x4e6d2d2111118e0U, 0xe610f819fc06f809U, 0x70ffad70000ecf9U, 0xfaeae9ee1506df18U,
  0xfd05ee0000fb1139U, 0xfde900c800f2e410U, 0xebe81433cf003cU, 0xed060300e1002906U,
  0x17eccec7000227d4U, 0xf4050b1be314fe18U, 0xd0ae4f4e7ecd812U, 0xf805e1fb08db0000U,
  0xe800061e1600f4f1U, 0xe7243eebf0fadfccU, 0xf4e2e11717d3ed43U, 0xcb0bef10d8f317d0U,
  0x1512ecd00018f1edU, 0xa0e018cd00e2bdfeU, 0xf1d4dddafdc4df07U, 0xca2415e9e5d3efd4U,
  0xe807e42003e2f1f8U, 0xda0b481302f3caebU, 0xf7feea1d1aa6ec62U, 0xd015dbfed81518e7U,
  0x1d1cdbc8fa0c18ebU, 0x90f21eeff9d6e70eU, 0xe000e9f0f4ebd704U, 0xd923fbe2d6e9eae5U,
  0xd1edd664e9f3f80cU, 0xd40444e5100cc5ecU, 0xf400fb201ca2e67fU, 0xb30ad9fbe20d1df5U,
  0x3a1fcfb5dcf638e4U, 0x94081306f9faf915U, 0xe0e0f7e200ebc01aU, 0xd82306ddc8c5fddeU,
  0xe0e6dff2002c0ef1U, 0x20dd6a93edf48f8U, 0xf80018da04e273dfU, 0x7f7d6f515e914f9U,
  0x14340f36c0c115ebU, 0xf2cd19bc00270015U, 0x11f01aef33b9f5e4U, 0xca1dfbeaf4230d17U,
  0xc8fbeff9de0020f2U, 0x10fadb9430db13f6U, 0xf81cf3e0d733e8U, 0xf6fceaea22002ae6U,
  0x251e0060d9d40be3U, 0xe5ebe6b2df15f61bU, 0x16f217131cdbcfd0U, 0xd914dbfd00def7fcU,
  0xe104e608c8f44f00U, 0x36d6e58143ce2abbU, 0xe5301aed1826f6U, 0x5e0dcd62c1035ecU,
  0x5f72e40ddd70eedU, 0xe6f8f498c21dc151U, 0x3ee210ede106e2d0U, 0xcff3ea02f9061330U,
  0x1be00dc8fd1d08fbU, 0xeae5ee273dfd1500U, 0xe0d0414f4112ae2U, 0x2619dcf51de218e7U,
  0x27e50a1fd20f272aU, 0xfbe417b2080d19daU, 0xfd110af31c03fef4U, 0xdf262c08f20000feU,
  0xf5e70adb051604e4U, 0x5f4e9f0f3e7f303U, 0xeefcf9e2f31df5ddU, 0x31adaeff9e347d3U,
  0xad4f8fee600300dU, 0xe3f4f2e3ec0edfe3U, 0x150500000610f7e4U, 0x11ea07ede413c7U,
  0xf5da08d31b0b12d9U, 0x2612d9ea10d1efecU, 0xe0fbf9d9292e0505U, 0xfa24cee008f530e7U,
  0xf9ee18f7f3d054fcU, 0xd2d9f4efe421d6edU, 0x3a070012e532eed2U, 0xd12f60febdb05f4U,
  0xaecebeaf70b1300U, 0x2c21032e680b02e2U, 0x1d14e522c300430bU, 0x4656fbf9f3f51efaU,
  0x15101e21f2184afbU, 0xcd41cbb48183b05U, 0xfe1f2c1d1c26f9f3U, 0xd51e3e22f00e0e36U,
  0xf5e2e30800f4f6d0U, 0x18e7d62326f4d6f1U, 0xe408d60fd9fafa18U, 0xfa2d1405f0fb35edU,
  0xcf705f9e4103214U, 0xe2f117f5320bf5faU, 0x2121ec2437f6d4U, 0xc9181a08ecdf3cf9U,
  0xf3b5d81b1bf9ebceU, 0x2304bc3a38f3f1e9U, 0xf51ecdbf3b1df21bU, 0xec400bf9faf12ae1U,
  0xba25230017e61f08U, 0xb7b9212f1b24faf1U, 0xe81a112a2e46e602U, 0xed0d1016bfc93a00U,
  0xef0619f0f1f5ea0dU, 0xdfe5f045fb1305d8U, 0xaee100f190ff21aU, 0xfa08d91607fe08e6U,
  0x2303eee423210be9U, 0x6def2000eda03ecU, 0xfde5fa140a04dbbbU, 0x1d02e811f6bdf300U,
  0xf71c04e211fcf118U, 0xdd03ea3ef8f706ddU, 0xde0cfe25260ff52cU, 0xed1fedf203edf2f0U,
  0xeedbecc9161b07e7U, 0x1acd0004f70412eeU, 0x1cfef20806f3eec7U, 0x1beee406fbf7defeU,
  0xfa0006ef3707ddfdU, 0xf3ffdd38ebfdf5f5U, 0xd4e2edf812f6fb1fU, 0xf2fcfee0d2eb12f7U,
  0xe4d1e3ce0501211eU, 0x4e0f00ff5fc1cf9U, 0xd04ed0e001ff3bfU, 0x2907feece8f9d5f5U,
  0xf3e905fbefc90c0bU, 0xe6eeea41f4ee00f4U, 0xf50b1e01f8230004U, 0xf2fe03faebf11106U,
  0xe80fffef05e7fce9U, 0x3ea1b0b28dc05f1U, 0xfaf3f30a1114deccU, 0xebec04fbfb110aU,
  0xf3fff7f414e7ee08U, 0xe0fde7130004ebf0U, 0xde060ce0f808f415U, 0xea10ec06e2e50300U,
  0xd9e909de18f115edU, 0xfae113f304eb1d05U, 0xef0f0f50406e4e8U, 0xf9f8f50fee0ffcdeU,
  0xea00deee1af3e2f0U, 0xf3ede00d1300d5d8U, 0xe2d600cdf406ed25U, 0xf0070df9fddf1bfdU,
  0xecedf3efff02f622U, 0xf4e00f09ecf440dcU, 0xf5e2f4f5f9ee02e1U, 0xea0303f7dd0efad6U,
  0xe1eaf426ebe018e5U, 0xfb00ec4524ebe1e0U, 0x5ed11f02d0b1e11U, 0xf7080cd1d60a1f06U,
  0xe1171e1c0dcf1003U, 0x11df27fe55fc0f06U, 0xfae906fbfa30dbb8U, 0xe6de00f6edf3f240U,
  0xe1d2dd3406e1ecf8U, 0xfcf2ee283800dedfU, 0x8e700e7de05ec25U, 0xeb1a0ceee8ed15fdU,
  0x1a1a1d1100f300e5U, 0x8cd0bdb30e43623U, 0xfaeef1e4e422e0dfU, 0xd5f4f81ae0e60523U,
  0xe4f2c8160be6d3eeU, 0x14f7ddf27f2ce7ceU, 0x2072dce0fda50U, 0x524000711f829feU,
  0x1738172f18292308U, 0xf1c4f8da06e64ad4U, 0xd0d8ecebdc04eff0U, 0xdfec0df3c7f61003U,
  0x421e0fc400eb15b1U, 0x17400300d9f0edf7U, 0x22fd0bf01ed100faU, 0xcb0d0c07f4ebeaa0U,
  0x1a00c5f5e5f9ef5aU, 0xd52029c7b7c9fa1dU, 0xc508c237ded827e4U, 0x4f00ebf9e0d5c0cfU,
  0x15dfcf09e3f3ead2U, 0xdeea13df0b0d0015U, 0xaeb060031f52ef3U, 0x1f0df30923e6c6e3U,
  0x19d719d51ffb0aU, 0xf404050af6061929U, 0x1235f524e2ca30e6U, 0xa15e8c6f900f120U,
  0x33e9e326b018e4e8U, 0xc41fb33608120dU, 0x10221a3f23f42015U, 0x3931d3d70f00d405U,
  0xef22ca2bd173f6d1U, 0xe824ce0209f7fb24U, 0x5831e0f40eec2fcbU, 0xec1616f5f700de1eU,
  0x1d15dbf5f4f113a9U, 0xd46e510e8f3ed00U, 0x16cd06b1c5a6df00U, 0xca07fd00c5d0d5c3U,
  0xa0ad7e000d7083eU, 0xe1aeda3a2f7f3f5U, 0xe5e0e83be900f300U, 0x12edc70c06e5f4cbU,
  0xf300e01be5ee00e4U, 0xdc0706f80710f715U, 0x1f00fdc319e226dbU, 0x31060003f9dae0f0U,
  0xf5e1f6ee000029U, 0xd17eaf8f8ee060fU, 0xe61413e1ed002c00U, 0xe2fce8f0f5e6ed12U,
  0x1a00fb03c8f6e7f4U, 0xecc60ef42011f204U, 0x3150f2e0ae210e5U, 0x3825dffdf200de05U,
  0x1606d40ee5390ef5U, 0x8f0091c08e21cU, 0x301ef1f027f83bd6U, 0xfb070709f60cef17U,
  0xe126edf838f0e9acU, 0x277fca1dcfddfa41U, 0x26bd11a393d8faf3U, 0xe32030e8afaf14cbU,
  0xd924f2a2fbc204f4U, 0xd2a04bcbcd805f3U, 0xdb0df93c10370f24U, 0xf000b9261ed2f1ccU,
  0x9ede136eef5f3f1U, 0xf9e72400efef31U, 0x62e0f7b628e70eceU, 0x3d0919f099d1fefbU,
  0xd447dadbcedfee15U, 0x2b28060bc2eeefU, 0xcd21ecd21628230cU, 0xe205bf0902d500f8U,
  0x11ef2848d014fcfcU, 0xcc3f00f2208cdf5U, 0x2300f30030cc30f6U, 0x32072314c0070c22U,
  0x20d400e21614e1U, 0xf6231e2b2edacbf9U, 0x35130ce8461d1de0U, 0xe618eb0006f9e71eU,
  0xede6b1e72ae4fa9eU, 0x3611db46eec41830U, 0x11181b07e4d6faeeU, 0x243be1f3c2d411e9U,
  0x2103100c6d9f812U, 0xd7ece4d7e8f57fd7U, 0xdb02dd2b69cd0be6U, 0xd7f041f2e806f8e4U,
  0xe0d9c6cdf006daa6U, 0x6f9f7e5ed00e264U, 0xe5db00f11bd30507U, 0x4e3a1bd1f7e7eb2dU,
  0xe139f5dad3eff30cU, 0xd00ab606120e7ed6U, 0x1a080de316bff3ceU, 0xbf331de00d3f00f6U,
  0xe4a616cad717aaaaU, 0xe2a9eac0edeed35dU, 0xe4acca13ecd7dc02U, 0x6e296ac3beedc600U,
  0xc163a0c4d3d4cfd7U, 0xb5ddc6abd5f73aeeU, 0x1d071d52ded1c9U, 0xf66a0ff764e4f9efU,
  0x1920d0212611d4adU, 0x52edb110bf6000cU, 0x1ade14f7c5dadddcU, 0xded7e4ead60419dfU,
  0xef301c0dd0e4eb19U, 0x4e6f7eff3132442U, 0x12d7184d001805U, 0xb6b511eb08cff1e4U,
  0xd40ad5f3fc63eac8U, 0xe623eed30911e820U, 0x17db0000f5e3f6e8U, 0xdd70ec20900ec0aU,
  0xf01fee04efc8ddf6U, 0xfcedb120af4f418U, 0x141500ce23e70df3U, 0xda1504c60029f8fdU,
  0xc7b80bccda69bcd2U, 0xdab9eab4f305ec23U, 0xdabdcd21e8d0f808U, 0x21de34ccde3ae8f4U,
  0xca3cad00eed9ced0U, 0xe8e2e6e9f1fde21eU, 0x41d3f1162d3c3bdU, 0xe7522de836052527U,
  0xf52ead565d1a009dU, 0xe47da1b1eeb0000U, 0xe6e421fc13f0ec00U, 0xef0c06f406e950e5U,
  0xd94c53f0c8eada4dU, 0xede61ce7d8133e31U, 0xeef8e1ee5d1de10bU, 0x1cbbd73d13a8c622U,
  0xddf6e5da2d1424deU, 0x273ce1ef03f11f11U, 0xefcd13efd4dcfc07U, 0x1bcff2d713151327U,
  0xe5541af4f6c5ecf4U, 0x13beee364700d900U, 0xf225121e4106f7f5U, 0xe201425cbc5e331U,
  0xe8fbc4e424e9f1U, 0xef18b3a4f9e30850U, 0xfbd0d73e31c704f4U, 0x4be705c1d218041eU,
  0xc24cd708dce3efe2U, 0xe1e7d30b1a18ee08U, 0xfd391e3c7803d0c0U, 0xe22d17021acef424U,
  0xfcf31c080fd41d13U, 0xd070f000b1b182fU, 0xc0ebf4ef180dfafeU, 0x3ed23af400cc34e4U,
  0xfddaa7d4ee1475d3U, 0x36f2fbd1d64de5dcU, 0xf121c5ded5e8fcb7U, 0xecfd084602d9f1dfU,
  0xaff90506f7d60008U, 0x112ef31b19311bU, 0xbef3dfbddfe405c3U, 0x38ef161013cf00eaU,
  0x19b784f1dce05b14U, 0xeef91e0eed1da3a4U, 0xfa1be2f2e6d10f99U, 0xd1e8df0413c4fd00U,
  0xc40023fc20cbe91aU, 0xda1116fb0d0937e3U, 0xe6e6d700df4a23e3U, 0x14f9f61446ede4fbU,
  0xf7d78fc6f1bd5504U, 0xe5d91e4df311bf97U, 0xd816e7f4bcdcfdd1U, 0xde09def213ce4314U,
  0xdbefecfce5d01d30U, 0xf9ea2a000035e715U, 0xe4bf03c2271cc70cU, 0x28e54ef40b16fae7U,
  0x2ce2cac1cbfb49caU, 0x3f1ef9e9e370fdfeU, 0x132ecffae1cef1edU, 0xbde2f0efd5e1e700U,
  0x81ccf1f0d4d72a00U, 0xd7fb19f23510dbf5U, 0xd4f7edc105d6bad8U, 0x1ff8200032f1d3e5U,
  0x2bdfb3dfcece27efU, 0xfce609ea004faecaU, 0x2fede20dc41accU, 0xcec5dfd6fae711e1U,
  0xc8cb00d5e2d7f2f6U, 0xe40006151eecd5dfU, 0xf0ffdd00f02df6ecU, 0x17fc171a32deded1U,
  0xef3bad8d9de5606U, 0xeacd161ded2bd4b4U, 0xa0eeee3eb1726edU, 0xcbd800f2fbd53210U,
  0xc1c8fc06dae72f4cU, 0xf6d617f0c649c0e4U, 0xfce1fbad2dfacfdaU, 0xe1de41f2003200cdU,
  0x12fac5fbb1fa0900U, 0x3a08e4f8ae76f2eeU, 0xfd1ad2e9eff000eeU, 0xcae8b5d8f1c40020U,
  0xb2b8ea06bfd83737U, 0x11eff4e30013c2e5U, 0xd408d7e02ce0e2d6U, 0xe7e324092506dfc9U,
  0x1cb4bc1ecedb0feaU, 0xeefc0decc65dd7e8U, 0xe130f9c408dd00e4U, 0xdcba00ba14d41afbU,
  0xcfbfdb0fda26041bU, 0x608e4f6f000ecd7U, 0xd0fece06e8eae7c9U, 0xf4d619273dd6e3afU,
  0x1cbac30cb808320fU, 0xe4c2130ce036b2a3U, 0xef1fefe1ee0c0be9U, 0xc5dc19e0f9b304b7U,
  0x1d30030dfbd107bcU, 0xf26ce2e7fbf9e6deU, 0xf1e9e1e13d0a52e3U, 0xe9fb34e53b0d0dc3U,
  0xdce3e8223bdbe114U, 0x4cbeda4f03d307e7U, 0xf2b1a542e9460726U, 0xdde3e6e1eaeff804U,
  0xf315d92dfa00fa0dU, 0xdb2be5090ae30dd5U, 0x7eedcf007e553f8U, 0x242b00d7f6e32ee3U,
  0xe2d9de1feed71b12U, 0x9e90424fbe7e5e9U, 0x27beb6fd27ec2500U, 0xdf16f5d7ed09e928U,
  0xf200fd1dc72f1341U, 0xf8f7f6fa00ee33e9U, 0x30f1dcf827b43a1bU, 0x125af9b4f60dfb24U,
  0xfc0fcd1de3f816ddU, 0xdff3302aedf4d1ebU, 0x2fd9c6d519b7fbedU, 0xf14000d4e50c2244U,
  0x30afb00e6b803a5U, 0xd71a00c60014fce8U, 0xeff7f0d602230ef1U, 0xdd0330f6210a0fd2U,
  0xfb08e7e70debfa0bU, 0x41cadb0609270027U, 0xe3f1d110dc50e10bU, 0xe5d1fb17d7cf0de4U,
  0xdceaeffbe6e40fe1U, 0xd70019fd09002bd4U, 0x17ecedcc09f632fdU, 0x102329f1f5d42af5U,
  0xe1f3c2e6e9f800edU, 0xe4c6f60f0507e406U, 0x12f9e6f71c0903e1U, 0xe9e6eee5dff3e4f5U,
  0xe0f000f2e333111aU, 0xe5ed061010f506d3U, 0x2e0eeef70ce63708U, 0xfb3c0ccbe1fb16edU,
  0xe421aafbd3030800U, 0xd9e72a11f4f8ba11U, 0x16fdd8d50ceff5e6U, 0xe80cef04f8ef1125U,
  0xcc00002a00bd1c96U, 0xd5340fe80029e5dcU, 0xf3f0ebfb1a792715U, 0xb91b26f1243ef0e5U,
  0xd831e4f91cdff828U, 0x41fcf51c303a2efeU, 0xf70ff8eae27ffa1eU, 0xf8e3131ed8ea1eebU,
  0xe80e001e0cd7fccdU, 0xc91f1418000ef5b8U, 0x25eaeddc361d4bf3U, 0x1127d7042524fdU,
  0xf529bd0900f3f300U, 0xe2d7fe3517250017U, 0xfff8dedae922e4d8U, 0xeff8ebf9e0daf50cU,
  0xe6d0171af2f5fe1aU, 0xdfdf2d36221a00acU, 0x1c00e1dd411c37fcU, 0x2b1a17be03531d00U,
  0x2bfbb804ed070be9U, 0xccd9172b050da70bU, 0x410e3d2060bf5e4U, 0xee12fdefdbf00734U,
  0xd50647e193ee50fcU, 0xf7beec311b6301d3U, 0xf04238e4c30ec20bU, 0x22d846b4ba1fdde8U,
  0xda060c0b02f3c0caU, 0xd0c299aaf8f315d7U, 0x1534f1dea750c7a2U, 0x11581cd0052a3ae1U,
  0xed123dc9bfed2deaU, 0x249cfc0ffe09f7deU, 0xf03f40edddfad926U, 0x12eb1da9b727ccf3U,
  0xfe1243eafce5f8cdU, 0xf4dfc409ecf1c6U, 0xa20d6efce4dd9e7U, 0x151512f9241ef209U,
  0xe30b64edebf51af1U, 0x2481d83ae8ead1e6U, 0xe44c56cab8b9c74aU, 0xa08dee9a62af7eeU,
  0x2c006ae9f6cf30d6U, 0xd6eebfe330e9e7c2U, 0x1007dbe5bd6c0ad6U, 0xe1ef04cd1ef1f51cU,
  0x9f1018dfce11f5eaU, 0xff306da081100e9U, 0xd240fbcaba17e7fdU, 0xf8c008d7fa03e312U,
  0xc2fd220015f7ec13U, 0xbbbecfcaf9df1df8U, 0xdec00d1d2daeaU, 0x1f0000f82b28d1U,
  0xc31000f8c00a00d9U, 0x22ce1addf11100e6U, 0xd42200f7f50f003dU, 0xf2c217c6fb34cdfaU,
